
/**
  ******************************************************************************
  * @file    cnn_model_data.c
  * @author  AST Embedded Analytics Research Platform
  * @date    Tue Mar 22 17:09:46 2022
  * @brief   AI Tool Automatic Code Generator for Embedded NN computing
  ******************************************************************************
  * @attention
  *
  * Copyright (c) 2021 STMicroelectronics.
  * All rights reserved.
  *
  * This software is licensed under terms that can be found in the LICENSE file
  * in the root directory of this software component.
  * If no LICENSE file comes with this software, it is provided AS-IS.
  ******************************************************************************
  */
#include "cnn_model_data.h"
#include "ai_platform_interface.h"

AI_API_DECLARE_BEGIN

AI_ALIGNED(32)
const ai_u64 s_cnn_model_cnn_model_weights_array_u64[ 34677 ] = {
  0x3d34927d3d0b82c6U, 0xbd139ae3bd846411U, 0x3c5344ee3d7ca0a9U, 0x3cec7ec4bdea7981U,
  0x3c9495f23d3fe454U, 0x3c838ba4bdc83c83U, 0xbbb636eb3d2c2c1fU, 0x3c2bf352bd193da9U,
  0xbd7099013c0a87c4U, 0x3ca30dfcbc548f20U, 0xbc309999bc697821U, 0xbc742ada3dbeaef9U,
  0xbca23a66bcce3524U, 0x3d0820923db4da3eU, 0xbcf18fa9b89eed7cU, 0x3c936ebd3cb359beU,
  0xbd2fa0b9bc3e4644U, 0x3c9b12883d4cbd33U, 0xbd94133bbc90cc3eU, 0x3d83a3643d5aaa7eU,
  0xbc959229bd598396U, 0xbdb2684fbbb93ef0U, 0xbd188b503d456bbdU, 0xbd8a3c42bc869f8fU,
  0xbccd69433d96ea37U, 0xba248f18bcde52dfU, 0x3cb3c61a3d949ea4U, 0xbca44a293c11f3b9U,
  0x3c47396e3d290370U, 0x3c04c9a2bd61f602U, 0x3d41d7523aa9a067U, 0xbd2f9c793b1bbe9bU,
  0x3cba29f4bd048021U, 0xbc89d6f1bc8ece19U, 0x3cc2e904bc82f118U, 0xbd7ee20cbc52a8b8U,
  0x3d27cae2bc9c38b0U, 0xbc69fe9fbb6a221fU, 0x3d7bdadcbd5befbfU, 0x3cffcad3bca9d6eeU,
  0xbc9eea233d0591c6U, 0x3df6efb33dbc2766U, 0xb9a4a64f3d01f7f5U, 0x3dec7f153d7c6aaaU,
  0x3c6001223c8a7624U, 0x3d9ec7203d042ce2U, 0xbba44edb3c012ed9U, 0x3d10c2febc3d8190U,
  0x3c89ebd93ca27382U, 0xb946be51bd0c0a63U, 0x3c6b8ccc3b8eff93U, 0xbd6be5a2bd89f1cbU,
  0x3c885c523af68d24U, 0xbdbf0343bd9af216U, 0xb8604a8bbcec7356U, 0xbda51e40bd198eb9U,
  0xbc58384fbd0a129dU, 0xbd8ab2e9bd3d28cbU, 0x3c80f452bc5c5a3bU, 0xbda3aa4e3c9174b3U,
  0x3cbf7ea2bd3b23feU, 0x3d8c1de53d5f6945U, 0x3d980da0bd20dffeU, 0x3d487ab43da01df4U,
  0x3d526484bcbdcaf5U, 0x3cc332793c607839U, 0x3c8dde4a39b29569U, 0xbc420788bc562ed8U,
  0x3d6d2abf3d450a52U, 0xbd9f86b83a66ac54U, 0xbc94a5aa3cb4ddbcU, 0xbda9dd26bd611f7aU,
  0x3ae646afba92172aU, 0xbcac4a53bce4c96dU, 0x3bd8621a3c9f8b6dU, 0xbd070379bc8d3285U,
  0xbdbc74563cb06d6eU, 0xbc87aaffbd462f5bU, 0xbd5a46643c2ac925U, 0x3cd81b91bc8acad9U,
  0x3c4eef6f3dbecc13U, 0x3dc1e21ebc9d2085U, 0x3d18e9ce3d7f550eU, 0x3d48d327bd0aba41U,
  0x3c95f15a3cf9b309U, 0x3aeea42ebd205f56U, 0x3d1ca5cfbceb40d4U, 0xbd0ad53cbc1642dfU,
  0x3ccd8e14bcff2590U, 0xbd5dc9beba6f55d2U, 0x3b461401bd813ccbU, 0xbd4e61cb3c981ebbU,
  0xbbd883bcbd1f9d42U, 0xbd4e6b7e3d51ffb4U, 0xbc530069bcb76932U, 0xbcbdaf1d3d6b6aeaU,
  0xbce41f2cbd3a2ff2U, 0x3b7baffa3d43eadcU, 0xbd1af4d2bbe89727U, 0x3d079da4bbd8e815U,
  0x3d20c2b73d8b8644U, 0x3cc1437b3d3862c1U, 0x3b988d533c960fa8U, 0x3d42f4af3c084db0U,
  0xbd82fd55bcad1f26U, 0xbc54c177bcb3d4eaU, 0xbd830fd5bd76cf16U, 0xbd8ae8bdbddef90bU,
  0xbcb0cc76bd495359U, 0xbc225624bd057eabU, 0x3ddca385bc3ae4baU, 0x3d339a773dc6633fU,
  0x3bc91a75bb05753aU, 0xbc4672383cf4f0f2U, 0x3d4e30873d03665aU, 0x3d57a3623d721f47U,
  0xbbab36673d147a09U, 0xbd40f5713c5faf28U, 0x39ab12203c14e468U, 0xbd37d41cbd8f9449U,
  0x3dabd5f03c99781cU, 0x3da90886bd82044aU, 0x3db59ea3bc9a653fU, 0x3d9c9964bcab54b8U,
  0x3d5c67aabd389cf3U, 0x3dbf89e8bd0449c3U, 0x3d2c9dd3bd153952U, 0x3d6002a9bd3f83c4U,
  0x3cba9813bbb72ad5U, 0x3d6b3324bd432751U, 0xbcc9c999bd05eb5aU, 0x3d0f8ee2bcc2326eU,
  0xbc9925f2bca7e932U, 0x3c7a8da9bd6a10d1U, 0xbd232b5fbc08d983U, 0xbc102257bd9054aaU,
  0xbd3a5185bc995f5aU, 0xbb8bb636bcee6b99U, 0xbd945a08bcc21271U, 0x3c9f093cbc46c82fU,
  0xbd876ac23cbfac7aU, 0xbddabcbabd6c30d5U, 0x3c2a94f13d34a669U, 0xbd47b670bc42ebf2U,
  0xbb2799b63ce513f3U, 0xbcb4c9d33c605eb5U, 0xbd12cd283cf64050U, 0xbd9bf5fd3d4f5027U,
  0xbbc74ddabc6341edU, 0x3d2beaf83d271a8cU, 0x3cf64d52bca5911fU, 0xbcf967edbc5e62c5U,
  0x3d49e31dbd619af8U, 0x3d840cc8bb2632f3U, 0x3cfcae31bc8b6312U, 0x3c83b37bbc99800cU,
  0x3d9d0814bc3371d1U, 0x3cc921353ba67d79U, 0x3de236133d106646U, 0x3c006c363cb0cb3fU,
  0xbdd3875a3d5c296dU, 0x3d0747163d1df3a1U, 0xbd806f5b3d57c3caU, 0x3d8a327d3cc2c652U,
  0xbccd42773d26c276U, 0x3d6c94183cc5ec4bU, 0x3d05f2a33bdbcdecU, 0x3d20a973bc7bf6bfU,
  0x3d7756abbad19c66U, 0x3ca44b40bd192469U, 0x3db0f896bce7c7d0U, 0xbb9b3cc4bcc1ddd8U,
  0x3d438af7bd77da62U, 0xbccedf9cbaa79d06U, 0x3d3c81bebd6d1ce3U, 0xbd38c4ef3c7ef3a3U,
  0x3c9747b0bd5484b4U, 0xbcc64a543bee2c8cU, 0xbd15386fbbb68c8dU, 0xbcc56365bca83424U,
  0x3d1f689e3d4c3471U, 0x3d91c0083d9772d6U, 0x3c022059bc62ee15U, 0x3c8ecd15bce8fb0aU,
  0x3da42a153bb37326U, 0xbd79a9573d36dc6aU, 0x3d969ae6bc28b99cU, 0xbd8dee7f3d845d10U,
  0x3c4076e1b8c857f3U, 0x3dd0189abccbb4dbU, 0xbc900b7ebc9e6a3aU, 0x3dccd9483cd1c875U,
  0xbcf9b32bbc7d50e7U, 0x3d70d31d3c4411feU, 0xbcbcfe35bc8c3b0aU, 0xbd5bd008bca83a8cU,
  0xbcd3ad433cc60831U, 0xbd917bcb3d27d006U, 0xbdaa1f613d17782cU, 0xbdc564b2bd95c845U,
  0xbda8aff33c02dfcfU, 0x3d48e7c73d8fd20eU, 0xbddd45363cde97e4U, 0x3cda3d3abd85f3b8U,
  0xbd493df33b2d55e6U, 0xbd119f8cbd2ffda4U, 0x3bd48259bcb9e872U, 0xbd7d9ea3bd894291U,
  0x3ba1c6c3bb5e067cU, 0xbd183dc0bcd1369fU, 0x3d4bb78bbb880736U, 0xbcc9325ebd5d7c4dU,
  0x3a45b177bcd99258U, 0xbad594c1bc6dd5dfU, 0x3c614ae83c9ee123U, 0x3c5452c33c80a843U,
  0x3d45b3c43ce15511U, 0x3ca98c653ce9b1bfU, 0x3d5e9b603d12b555U, 0x3d1ff48b3d82b9e6U,
  0x3d60dc1f3d24728bU, 0x3e0095293c800912U, 0x3c57a158bc39164aU, 0x3da6f287bd2cee47U,
  0xbd5a27febc4aaed1U, 0x3d9513ecbd3916b3U, 0xbd367cf83c9f60f3U, 0x3cc8af41bc2bd75eU,
  0xbd85ca983c96c07dU, 0x3cbd73bd3d72b4a0U, 0xbd7e864ebcc67ee1U, 0x3d0078103d63f1d7U,
  0x3bd721723cbf8b14U, 0xbcc4ce8a3d5a1640U, 0x3cf3af4ebc58b837U, 0xbd49dac03d1d508fU,
  0x3d116f8d3b4b07adU, 0xbe0d7be73c0872f4U, 0x3d81a740bcb0bb57U, 0xbe0b8a15bd186497U,
  0x3d6acf04bd10851dU, 0xbdb16c893d84b40fU, 0x3c8869a7bd74bcf5U, 0xbcf0ce473d7365a8U,
  0xbd2029dbbd1956d1U, 0x3ca65fe63cd89f8fU, 0xbc8f706abc46f061U, 0x3cbca6b93b08ef9fU,
  0xbd50c49fbae34419U, 0x3bf4cddebc7bb026U, 0xbcaec95d3bf43c0fU, 0x3c54ce93bd0ac52aU,
  0xbd0874c43d6752bbU, 0x3cfcf770bd2a9944U, 0xbd2b36fa3d38865bU, 0x3b2a1e97bd5715aeU,
  0x3d1723ea3d8a37d5U, 0x3c375f22bbc8af20U, 0x3c882a113cf5f306U, 0x3bd2e526bbf730c8U,
  0xbb2713433ca20c26U, 0xbdf390ccbd2517c5U, 0xbbadf7483c967800U, 0xbdcbf2d9bdd0fa44U,
  0xbc8ecacebc041af1U, 0xbc9b9de2bda33a14U, 0xbcaa2662bd15c1c5U, 0x3d5fa2133cbf1183U,
  0x3d84bbc2bca99305U, 0x3d79e5cc3d9d88aeU, 0xbc7ddcbfbc2f90caU, 0x3db151f73d43e318U,
  0xbadaf130bcba4cdcU, 0x3d41034d3d9b2f49U, 0x3b7d45c73b5f56bfU, 0xbd0c3d803d02f4ccU,
  0x3c15038f3c0a5cb0U, 0xbcda3ff83c2c714aU, 0xbc6de1a53da9ffe8U, 0xb9de3d21bd319da1U,
  0xbd05c82d3d4b45c7U, 0x3c7844bcbd13739fU, 0xbcbc05593d0b54ffU, 0x3d78170cbdaf65b0U,
  0xbcdc538b3cdb1cd3U, 0x3dade64abdb70d3fU, 0x3d60580bbcb1c6bdU, 0x3c4df051bd9fb6aaU,
  0x3c9e57f8bc8c969cU, 0xbd3fdffcbca64168U, 0x3d51f4ffbc9d395cU, 0xbd9d4bd43d33a58aU,
  0x3cf931603c1fa189U, 0xbda2ebbc3d4842c6U, 0x3baed61bbc0fc91fU, 0xbc00455e3d502574U,
  0x3c32709c3ba3103bU, 0x3c529a1c3db882bcU, 0xbcf87db23b1ab975U, 0x3d4c0be43dab66a4U,
  0x3b8c85783b65d321U, 0xbd6a5593bc0fec01U, 0xbc998082bd47b720U, 0xbd45a892bb9c9fdeU,
  0xbc5a8e13bd43c6dfU, 0xbcd498c5bc5f3f51U, 0xbc15df03bd8ad56cU, 0xbc97b40bbcec83a1U,
  0xbcc5afc2bd5612c2U, 0x3bb62c693b9a81c1U, 0xbcd84a983c19e583U, 0x3d2b15a9bad0d26fU,
  0x3c4e1f763d00e5aaU, 0x3d9ba4093ca482ffU, 0x3d170f653d23955bU, 0x3d955bb43d06c9a1U,
  0x3cae505d3cbface3U, 0x3d27435b3d50afcdU, 0x3d0b28a13d3bf324U, 0x3dc947263dac0beeU,
  0xbd3256573d0f22e2U, 0x3d4e91b83d143be1U, 0xbd140512bc4afd78U, 0x3cb0d6413d897269U,
  0xbc9429a0bc8c06fdU, 0x3c4f514e3d417de2U, 0x3bd2bf89bd9c511aU, 0xbb8459d03cf99888U,
  0x3cb9d4b5bd667873U, 0xbc8583d33bc84f53U, 0x3ce93d4cbd98a78fU, 0xbd0bfa0c3ccad104U,
  0x3ceaf09dbd240bf2U, 0xbcd37a04381c3391U, 0x3d28424fbce8cebdU, 0xbcb157a03c812261U,
  0x3cd3f6063c845d95U, 0xbd0a49febc05e473U, 0x3d31a729bb94e6e2U, 0xbd7d828abc8a2eb1U,
  0x3d06eec3bc5a0137U, 0x3b9b0a53bca3ec4dU, 0xbce52360bd1dd7e8U, 0x3cb9e1eabc95eaa0U,
  0xbd5bf633bcb61e36U, 0x3c96dd20bce4f745U, 0xbd448bb63d42fe1eU, 0xbbabdaf9bca989cfU,
  0x3d1a08483d869216U, 0x3d6797bf3d93a6feU, 0xbb137dc23cc97aa0U, 0x3d2d00aa3cc8d58fU,
  0x3d2c0b89bc0c1f62U, 0x3c543bbb3cc72385U, 0xbc42d907bd66ca8cU, 0xbd247e6dbcf3c640U,
  0xbcb5f036bcf28c88U, 0xbccdd4213c2a3ce0U, 0xbd6c18013b3b9a2cU, 0x3c7c220fbd8173f6U,
  0xbc1336ddbd089de2U, 0x3d5d02ffbd1480b0U, 0xbc0d52d4bcafd4cbU, 0x3d5afccebc321703U,
  0x3c9b19f8bbc92901U, 0x3cb93cad3cfd704aU, 0x3c616dbabbd0ed62U, 0xbd08744f3d99fc63U,
  0x3d3d3a293d6b2936U, 0xbd09989a3deb0a67U, 0x3b50fec43d124250U, 0xbd030c593dd202e5U,
  0xba6bb4e73d2dd674U, 0xbd80744f3d692c0eU, 0xbd23bd483c925c67U, 0xbdc2b2cbbd8284d1U,
  0xbd484059bcbfc055U, 0xbd3c3312bc22a528U, 0xbd3c99a4bcbafa3eU, 0x3d3bf028bc8da9ccU,
  0xbae5a3cc3bbec275U, 0x3ba011e43d957f7dU, 0xbcfe7a663c3c5a07U, 0x3d1f74c03c4baadeU,
  0xbc544ca6bceaea33U, 0x3c819748bc207e2dU, 0x3acd8606bd1639f6U, 0x3d41a6693c543996U,
  0x3c838d4abd13356eU, 0x3d0d6b7e3c058377U, 0x3d2a71c2bcdfb8beU, 0x3c47f8dabd1ca9aeU,
  0x3d78abc5bc4b25c0U, 0xbd28b86dbd84cd82U, 0x3b439f703d67d9d7U, 0xbda8fb21bd8fde00U,
  0xbd3a9ee53d4e46efU, 0xbdb38788bd0f073aU, 0xbd2022563d6ddc72U, 0xbd33d11f3d0800e4U,
  0xbcc4ea843c463685U, 0x3cc0d1043d048a36U, 0xbd40d2fdbc15f678U, 0x3c69faab3d584af4U,
  0xbd0fbd26b92ca87fU, 0x3ca6bb233d654e78U, 0xbca27408bd085272U, 0x3cc340a23da8b9f2U,
  0xbb3850a53ca78f23U, 0x3ced7f0b3d885b87U, 0xbcaf6e57bc823e02U, 0x3d597c023daf1ad7U,
  0xbc5629d9bc80a1c4U, 0x3d81c4d73d6195a8U, 0xbc8d0cedbd6047deU, 0x3d36d51d3cf2fbb2U,
  0xbcba8784bd151813U, 0x3d873d0e3c2eddc9U, 0xbd03c199bd21cb1dU, 0x3d534ebc3c0ab918U,
  0xbcf698cebbd2f0f4U, 0xbd3582903dc68d3fU, 0xbd55b871bd060d3eU, 0x3c8650eb3d905f65U,
  0xbb442b5b3c6079feU, 0x3d6fcc3e3d9862f5U, 0xbcdd4f1e3b878a94U, 0x3d8d0af4bc4a6799U,
  0xbce3bc4cbcb3ba98U, 0x3d2d89fabcc6ad95U, 0xbd6b8493bc7a2aeeU, 0x3dcef68fbced587aU,
  0xbd1a59b03ca34db2U, 0x3dd22b62bc901e78U, 0xbd31038c3d4784baU, 0x3c3ee457bd3a4f76U,
  0xbbdde7853d360f26U, 0x3c558f9a3cd24b90U, 0x3d889784bcd1d95cU, 0xbd93b0f8bc5dc67cU,
  0xbbcbda6b3c77d965U, 0x3caba372bc968808U, 0x3d1e0642bd21d6a6U, 0x3c924f41bcafe390U,
  0x3d78a03fbcb98c5dU, 0xbbccde03bcb90f66U, 0x3dc0a242bd4fe88bU, 0xbcac6a5cbaf459e2U,
  0x3d9fcdbcbd4d9931U, 0xbd8b78e63ca9f302U, 0x3d57435fbcae5a8fU, 0xbd82c2623d112603U,
  0x3cbca2a9bbf84a25U, 0xbd4c50163c6efeeeU, 0xbc906e6bbb95f192U, 0xbd40cd363c1a3958U,
  0xbceed5713d33da15U, 0xbbbda87bbc066ca0U, 0xbd700ad13d6509acU, 0x3d2cb8b43c88ba8eU,
  0x3c69537b3c36300aU, 0x3c12b1383dc0342dU, 0xbc66ac97bc29ef01U, 0xbbcf6e5e3dae179eU,
  0x3bbf2b9cbba44704U, 0x3d1f8aa43d90e75dU, 0x3cb4ba38bce05cf8U, 0x3cde9bb23d830be4U,
  0xbc4b494bbcfb6d84U, 0x3d68f4913c85210eU, 0xbc8c3f51bdae143fU, 0x3c90a10aba03dec8U,
  0xbcdb0eadbd4a640aU, 0x3cdfb903bb438da4U, 0x3aa26686bd88f0b3U, 0x3c108044bb62971dU,
  0xbc454303bd575dc8U, 0xbc510083bba67005U, 0xbb0cd02fbd1c76f4U, 0xbc4130adbd264488U,
  0xbc279454bd21c022U, 0x3db7e3fbbc7e8611U, 0xbb9178b339e0cf4aU, 0x3b377016bd1d3edfU,
  0x3c2145af3ce01696U, 0x3b193e3abbdbdb2fU, 0x3dab4ae73d93f47eU, 0xbd3473fd3c9e3243U,
  0xbb4da17c3cb02649U, 0xbd5af9f03bb0a231U, 0x3cd9b4173c97e70eU, 0xbd5493003d87b5eaU,
  0x3c557822bca2943fU, 0x3c7f2aba3cb48769U, 0x3c9ce8db3d27a531U, 0xbd0b85553c87cf2fU,
  0x3cfaf3053d968148U, 0xbd95896cbd451965U, 0x3c594a243d786709U, 0xbdb95d09bd62fb72U,
  0xbcd69ee1bbb6d443U, 0xbcfdfadc3cc14167U, 0xbc29a55bbd0417ccU, 0xbda94cfdbbb53e0bU,
  0x3d9836663bfc79ddU, 0xbd8761a4bc253a09U, 0x3cbe62edbaebbe75U, 0xbd2ab031bdd6363dU,
  0x3d64fa263bce13c6U, 0x3cb941a4bd848509U, 0x3d8185a5bb4036e1U, 0x3d6f16afbd095bffU,
  0xbc0239cd3c96a107U, 0x3c946a16bb4c89fbU, 0xbc02f7f93d02c2adU, 0x3d82aad83d10db3eU,
  0xbd788f243cb51674U, 0x3ca9d6b83d3e1f43U, 0xbdb832b4bcb3a12cU, 0x3c612e4f3db2e61bU,
  0xbd02ff5d3d651442U, 0xbc6c16cc3d29eaf5U, 0xbbeadb623d1a0bc7U, 0xbd3544003dbb142dU,
  0xbd5ef73c3d61a8b8U, 0xbd2f31673d89e4a3U, 0xbc68ac693c4df370U, 0xbd066aa83d970b2bU,
  0x3c39cf4dbc9aff2bU, 0xbcdd28373ceedcc8U, 0x3cbbc910bcac9a99U, 0xbc63002c3d22b5c6U,
  0x3ba7b6f9bd7be0eeU, 0x3b9cf1e2bd4be934U, 0x3c7278cebcffe677U, 0x3d8e3d18bd57c80cU,
  0x3c1856c13c1d639fU, 0x3b097892bd8b28feU, 0xbab9d7f3bcc7b6a9U, 0x3b8bddacbd967b0aU,
  0x3beccfd43d09373fU, 0x3c81eedc3d210928U, 0x3d96840a3cd9ee67U, 0x3ba86fe4bc16449eU,
  0x3d9c16743baca41fU, 0xbc1297c0bd0a2c06U, 0x3d0b66dd3b9c46aeU, 0xbd363951bd4c6e03U,
  0xbcb818c5bcfa53b0U, 0x3cbe9aadbd19d17bU, 0xbc9b63acbd1231d7U, 0xbd0b310abcf3c055U,
  0xbdac8531bd35969aU, 0x3abe0a4fbceb6f04U, 0xbdbd1ff1bc097663U, 0xbb04226e3cf7b457U,
  0xbd1cd6103bc597d2U, 0x3d2fc9303daaf07eU, 0x3d328cda3d7eef7bU, 0x3ceda0853d10a6efU,
  0x3c916f47bcb70624U, 0x3d38e40fbdd8651bU, 0xbd738a17bda5dac3U, 0xbd4f6718bd8f7e45U,
  0xbd908619bde7d9c7U, 0xbd43e3b8bdc830faU, 0xbc6b5a10bdc0e0f3U, 0xbdde077dbd612789U,
  0xbd9dd1febe1f67a0U, 0xbdfed2e8bd0008bcU, 0xbd983c56be32c2aeU, 0xbe15f910bde468c6U,
  0xbd4d5bd43cadd365U, 0xbe33ff78bd0de6bdU, 0x3f64107d3fc5cf87U, 0x3fbe63c43fd433feU,
  0x4039200b3ee1ab3bU, 0x3fd0a85a3e266f20U, 0x407b43ed3edd1fccU, 0x4040468d4044c219U,
  0x403ff3733f87b642U, 0x3edbbe9540277467U, 0x3f7827fc3de4ac9fU, 0x3fca621140049a58U,
  0x40188c383e2b7f84U, 0x3da794853eb68a4dU, 0x406029003f8d68a9U, 0x404dd2113f8214ccU,
  0xbe47f6a6be8ec5fbU, 0xbe53174ebe32c6d4U, 0xbe393b14be217e5aU, 0xbdc76a9cbd8ede3aU,
  0xbe2dec88bdf0cebaU, 0xbe8dd0dabe82f0ceU, 0xbea30d30bdc75cd8U, 0xbdff9e24beb4936fU,
  0xbcf9e8e0be0186c9U, 0xbdd46a8abe39aa2fU, 0xbe3fe168bd879e0aU, 0xbdb431f7be24f776U,
  0xbeb837e6be0f2d96U, 0xbe13cdefbd94bb04U, 0x3cf592e43ce73416U, 0xbcafa75bbd524951U,
  0xbe03b487bdaaae33U, 0xbb2d2619bd71e7f5U, 0xbd8582c3bdb23612U, 0xbd3c1a1fbbf0c3f8U,
  0xbd3a519f3cdb1b7eU, 0xbd5348c0bc9a5b6bU, 0xbc6e3851bd13e873U, 0xbd8e2de7bb977b55U,
  0x3d2daf75bc8ce332U, 0xbcfd74ecbc7b79d4U, 0x3d3809e83b1100d8U, 0xbda53053bd837f43U,
  0xbc9881443c1dddbfU, 0x3c3fd5eebca60c8cU, 0x3d837a683db74fd1U, 0xbc87b46c3ca57b43U,
  0x3d0f70b83de409b2U, 0x3d2eec613d3a3cb6U, 0x3c13884f3c7c52c9U, 0x3c7ad8b43d30c0ebU,
  0xbb08693f3dadc676U, 0xbcf62e80bc418312U, 0x3d6a0b993d6852b4U, 0x3d9e4e7c3e218e37U,
  0xbd275a59bcd5a7d4U, 0x3c5afb5abe009a1aU, 0xbc2cc6ebbd0e7dbfU, 0xb97e1ea23d7d36ddU,
  0xbd02d0323d21c6f6U, 0xbd94debfbd0d8d31U, 0xbd6dee263d81e112U, 0x3d08bde6bccfe31fU,
  0x3cbfe36d3d8fdb17U, 0x3cbd1dc6bd033aaeU, 0xbd0414e43d8e0814U, 0x3bdab9523d6746f2U,
  0x3daddb293d39c678U, 0x3d29e5803d751a4eU, 0xbd0ac4a13c144925U, 0xbde32a0c3c934371U,
  0xbd3f00dd3cd453e6U, 0x3de2b7bc3c7d034bU, 0x3c28dad9bd0a09dfU, 0xbda2053c3db28026U,
  0x3da478263c8c5101U, 0x3dfacfe1ba985e41U, 0xbd99349fbd16b240U, 0xba367179bd69428bU,
  0x3d3a43e33d8e9bb4U, 0x3dda6e3a3d3d92edU, 0xbd883d6c3d05caf2U, 0x3d5d19cf3d1c077bU,
  0xbba0fe12bc453cd8U, 0x3dbe673bbd561e4bU, 0x3cf4074dbc365b93U, 0x39c93ad1bd4d4f29U,
  0xbdba0b58bd71b896U, 0x3cfc94a1bd7d08e4U, 0xbdc198cebce28dfeU, 0xbd912f92bd2acf66U,
  0xbcedb9163c7290cdU, 0xbd6ea357bc01c77bU, 0xbcc08849bd44b4a9U, 0xbd470b5e3c8c898fU,
  0x3d8414d0bc94515dU, 0xbd4fba12bcc96f19U, 0x3b069d6bbc51de31U, 0xbde658b6bc0dfbc2U,
  0xbc48c94a3c9c87a7U, 0xbc176f59bdb75fe0U, 0x3cfed39a3c6cda3dU, 0xbd027acc3bded8f7U,
  0xbcbc51b53d775aeaU, 0x3cbaa6cb3d1998a6U, 0x3c81dd82bbee74d0U, 0x3d4487b13cc5eaf0U,
  0xba8ad4c03d9eadeeU, 0xbd81e44abbca2bb2U, 0x3cb3a3033d76af81U, 0x3d93e4aa3e180282U,
  0x3c29d39c3b168f21U, 0xbca0b729bdc4edb2U, 0x3c0f3a84bcc90b9bU, 0xbc20cbbc3d49dd8bU,
  0xbcdd18503d4a50eeU, 0xbd9c2971bd0f6533U, 0xbda529433d86c281U, 0x3c1f99113d005722U,
  0xbb2a38f03c7aac6cU, 0x3ce168693cbc9fd8U, 0xbd532ba33da50598U, 0x3cdd95283d20f54dU,
  0x3d2eef323cfd59c3U, 0x3ceb99863dba9c8eU, 0xbd3402b83ce6169bU, 0xbe102c50bb1d551fU,
  0xbbd873a93c2fcafeU, 0x3dc0b1a33b822ffeU, 0xbd1963cbbd6a0d22U, 0xbda5343d3daac5deU,
  0x3ca38c5a3aea08fcU, 0x3d4480b4bd35062dU, 0xbe0f1c75bcfaa9c2U, 0x3d00bd71bdb3fd7bU,
  0xbb8b1f553d84eb71U, 0x3dadd3f53d86fb47U, 0xbd97d0dcbc1ebc39U, 0x3d159a993d49245fU,
  0xbce15b57bcfff2b8U, 0x3d9e3d33bd648703U, 0x3c20bd7ebaab7414U, 0xbc368f87bd545c28U,
  0xbd2c2bb0bd4d19cfU, 0x3d00174fbd66b51bU, 0xbd2b66913b7f5025U, 0xbcece9053cc284feU,
  0xbcc3ef443cd7d04eU, 0xbd7d1ed23ab19062U, 0x3be1b554bd5253eeU, 0x3c9d013abcc1f9feU,
  0x3d8bbcf3bd106dedU, 0xbd801874bd08203aU, 0xbd181714bc2ad15bU, 0xbde0e45c3c937865U,
  0xbd0aee643cae6d70U, 0xbc9fd356bde4aae6U, 0x3c81d6d9ba190197U, 0xbd6307523cb4bea3U,
  0x3c8e19033d59d15fU, 0xbb3ea3683c69bf9aU, 0x3c7f3951bc8d1f3bU, 0x3c9494e23d5e2888U,
  0xbc6e43f03d777a7aU, 0xbd8d5e9fbd0acb48U, 0x3d02a8293d082df0U, 0x3d85cbe13e19d3fbU,
  0x3d2262743bf29ee6U, 0xbcfe2873bd89a315U, 0xbb2c26edbc3b8c6cU, 0x3c1d04063ce05957U,
  0x3ccb227a3dbc05c4U, 0xbdbdd6b7bb9df355U, 0x3cccc88e3d941986U, 0x3d31365d3c52f5cdU,
  0xbccfec68bcdec2b1U, 0x3d63aafc3d54ec3bU, 0xbcf7fc053d9f96b7U, 0xbcf074d53d03bdcbU,
  0x3ca37ce23cf61d90U, 0x3c9d77ff3dcdd6ebU, 0xbd23c2453b72dfbbU, 0xbe11b5703b61cb31U,
  0xbc93fe5cbb7303a1U, 0x3d8c88213cb905d0U, 0xbd5c712ebd7c6258U, 0xbd47a1773d881d40U,
  0x3c98c2d93bf14a31U, 0x3d271ed5bcc40b1eU, 0xbdc0a5b73bcc8e8dU, 0x3b5f43d9bdaf953aU,
  0x3b9dd5e93d6d97e7U, 0x3d8bdd573cc2aefaU, 0xbd88953abc609676U, 0x3c897d2f3d886c9aU,
  0xbb4db0d5bcc7a882U, 0xb92199d7bc9bd412U, 0xb9c84e7a3bdf8d95U, 0xbd1bc3a6bd9832d6U,
  0xbd0c4943bcca1743U, 0x3cfc8e02bd6b32c2U, 0xbdc5fc03bba1f249U, 0xbcd4bacdbc576405U,
  0xbd19e8023cb8a745U, 0xbd9ebd053c5acff9U, 0xbd563f25bd8bb6afU, 0xbcd0581bbabd84d4U,
  0x3da0657bbd45f9d0U, 0xbd7bb90dbd118900U, 0xbce99ce2bb52ee34U, 0xbe01761c3c29e180U,
  0xbd2022ff3d1f2d1aU, 0xbd1c67a1be0d821cU, 0x3c201ce63c363603U, 0xbd2ff8743c41d227U,
  0xbc3cfe7c3b9711baU, 0xbc38426b3c952b05U, 0x3c6f7281bd578f4bU, 0xbb8593943da2cbd2U,
  0xbc2a4e4b3d8e19abU, 0xbdab6b40bb39b43cU, 0x3ba8c40a3cd2f9e5U, 0x3d86bae73df9185aU,
  0x3c2391a8bc6fd6cbU, 0x3bc2ab31bd485fe2U, 0x3cdd11e63c1a4399U, 0x3cfaade83bded94fU,
  0x3c04356c3d3fb98bU, 0xbda112073b2d0026U, 0x3c759b623da4b18eU, 0x3c3701793c876659U,
  0xbbac724ebca1d2b6U, 0x3d89aa713d739653U, 0xbcefd06c3d7ff082U, 0xbd2bc51dbb8eff25U,
  0xbb803a5e3c7f9829U, 0x3d3c06753db74871U, 0x3b4521473d0505a2U, 0xbe0752c43bbb872eU,
  0x3d03e663bcc9a0b8U, 0x3d56d02b3c519e83U, 0xbdddcadbbc41dd3fU, 0xbd58c5e53d90cf33U,
  0x3ccd869b3c6c1e6eU, 0x3c098444bd27ce2fU, 0xbd5f1cf83c431a25U, 0x3c388035bd98da25U,
  0x3cb8d8133d140d50U, 0x3d2d27f33bd09493U, 0xbd742846bcd68530U, 0xbc4c54383d3f995dU,
  0xbcc8eed6bcc15274U, 0x3d1c1b853cbe1870U, 0xbc0ff150bb70fab1U, 0xbda431aabd7d8116U,
  0xbce80c48bc1abf46U, 0x3c795fdcbd44de74U, 0xbcfcd5973affab5eU, 0xbc56ed3a3bd3c2bbU,
  0xbc3706b93c2fd9c7U, 0xbdab2b173d168a73U, 0xbd635d78bd394022U, 0xbccbbafdbd2ee6edU,
  0x3d52c09bbd3d5d12U, 0xbd37507fbd1bf859U, 0xbb88a89fbc8d9ff1U, 0xbdbc17003cc331ebU,
  0xbd2275533c879cdfU, 0x3c87c96ebe02304dU, 0x3bf0c8d2bb69cac0U, 0xbd3a41703cf30a71U,
  0xbc8505b6bd2e0388U, 0xbc86f2db3a3e0304U, 0x3cd3c8fdbd66981fU, 0xbbe4fe693d34291eU,
  0xbcd9ffbc3d887d48U, 0xbcdecfa939983db2U, 0xbb38c20ebc3b848bU, 0x3d0c8d263e035367U,
  0xbc5089c9bbe1584aU, 0x3c814cc1bd72388bU, 0x3d501d183cd51463U, 0x3d1d484a3c924501U,
  0xbbe896243d61e76aU, 0xbd3ca807bc5d0985U, 0x39ec29743da06e67U, 0xbc80182ebc99fdf3U,
  0xbd5e48b5393835aeU, 0x3d04f1883d9adfe1U, 0xbd720a6b3da207aeU, 0x3ce9e247bcb4a75fU,
  0xbcd68748bbde3770U, 0x3c393c943db68711U, 0x3c1705a93c338c0eU, 0xbdc677813d91bc02U,
  0x3d6f4234bd6da2fbU, 0x3d7ce108bc1e0905U, 0xbe4762643b59bca3U, 0xbd01ebc83dae6e29U,
  0xbc24d2953d1ed14dU, 0xbba0bab939ee16bcU, 0xbc65894e3c0b2aa9U, 0xb94869aabd727d46U,
  0x3cfedb873c70d3b1U, 0x3d085c573c08b0eaU, 0xbd864067bce5c528U, 0xbc3aa91b3d96881bU,
  0x3b9c93f0bce5782aU, 0x3d5283f93cf6306eU, 0xbc62be31bc760056U, 0xbda7d27cbd032c99U,
  0x3ce6e3ddbc0972b0U, 0xbcb62808bd0218b9U, 0xbccbf99fbbdcaa24U, 0x3ca833b3ba25c631U,
  0xbbea2bb23c25154bU, 0xbda2b0ae3d5e26b4U, 0xbd86d381bd49d84bU, 0xbcd663b0bcd5e19cU,
  0x3cf14089bced13aeU, 0xbcff609bbc9cf52eU, 0x3cefcf463bcd2397U, 0xbdaac5af3c391abdU,
  0xbd01444c3be64cc2U, 0x3d24cf88bdb58723U, 0xbcf77b96bca86223U, 0xbd24ecff3c8704c7U,
  0x3d33cccabd8592feU, 0x3cc64354bbc9d253U, 0xbab115c7bd108312U, 0xbc930a9f3c9913feU,
  0x3bca41683d6117fdU, 0xba3aa8643c66e104U, 0x3c1df895bc642fc7U, 0x3d51efdf3dd4f24dU,
  0x3cf1d013bb4ddaf4U, 0x3c5f41ddbd33f7eaU, 0x3d53e5ab3d4d8c7eU, 0x3cfbb4ebbd82807fU,
  0xbd5c64f43d397c3fU, 0xbc96e9ed3cda878fU, 0xbc98b33b3d730a43U, 0xbce71a0b3bf80e85U,
  0xbdee082f3a5a21d6U, 0x3c9ac88f3dd42034U, 0xbc9203c43d3bd1e1U, 0x3d12cd903cae7310U,
  0xbcb93a9d3c9da4f8U, 0x3c6325513dd1a66aU, 0x3a8d54cc3caa7c1fU, 0xbcb7977e3d8bd36aU,
  0x3d8453583bc87c0fU, 0x3be9ccc73b911d58U, 0xbe575fd53d1f2a38U, 0xbcf9e3013dafdb54U,
  0x3cc452253d8027b4U, 0xbc963d713c93adaeU, 0xbd2598c8bcdaf24aU, 0x3b966c56bc76be74U,
  0x3d32f9823c8879b7U, 0x3971ac653d555b70U, 0xbd9c1aebbcf174c3U, 0x3be3fc8e3d6b6701U,
  0x3d7b06cabd0fbf6fU, 0x3d1495483d80dda4U, 0xbb901821bcbd7797U, 0xbd4d29a5bb9cc782U,
  0x3ccc1981bb84e6adU, 0xbcb2bd61bb75a902U, 0xbbd73223bbaadfffU, 0xbbf295d63c1b6311U,
  0x3c505a51bd132323U, 0xbd94918a3d0bef8fU, 0xbd6422e5bd514570U, 0xbc59ace13cf83fe6U,
  0x3cbcb0aebd18e3eaU, 0xbd635ed7bcdc2882U, 0x3d1a3ca7ba9c3d8dU, 0xbde56de2ba597c06U,
  0x3b97615d3ce11ad7U, 0x3d742d00bd67a187U, 0xbcf8c5a3bd2c0cafU, 0xbceff7f33cff7486U,
  0x3c38200bbd5a4ae1U, 0x3c5346743c854234U, 0xbc4b4306bad2b818U, 0xbcb2cd4dbbe50fa9U,
  0xbc6423013ce5c790U, 0x3d038d0a3d03f749U, 0xbb09965abd61ab61U, 0x3d2a5cc53dbe6e59U,
  0x3c902a0cbc39dc49U, 0x3ca6b57dbc3cbd6dU, 0x3c6337853dd84dabU, 0xbc76ac14bd3252b0U,
  0xbc9ade1e3d3f216dU, 0xbc80adebbc06212cU, 0xbd38b13e3d721b60U, 0x3b67122ebcb4454bU,
  0xbe31564f3d651ea3U, 0xbd1a27ed3d90313aU, 0x3b15e3393d214153U, 0x3d5e69a63d2f21abU,
  0xbcd200b63c5e0d0fU, 0x3c0b97ab3d6948dbU, 0x3c389e1fbce7bfc4U, 0x3d0c4e6a3d1a5230U,
  0x3d17f4e93cf7c911U, 0x3c8267473b74b5f1U, 0xbe11a4d83d0258b7U, 0xbce61bc53d8e5b6aU,
  0x3a46a5433d932685U, 0xbc304096bd0d75b9U, 0x3c47433db927303bU, 0xbaf50573bd2298bcU,
  0xbd081ac43c061057U, 0x3c4535153d1347e6U, 0xbd2bc6ddbc190addU, 0xbc52a59a3d639b8dU,
  0x3de2a6ebbbd3c368U, 0x3cbab9c13d518bebU, 0x39bd6c50bb923b66U, 0xbd8c9b41bcd52e4cU,
  0xbcad8bdcbc727737U, 0xba9fe296bc553c7fU, 0x3c0e40b0bbb99b47U, 0xbcc787833d21d828U,
  0xbd112b0ebca42ce4U, 0xbd8b3c143d0f2913U, 0xbb768fd8bcb74349U, 0x3c5945833d0e36f9U,
  0xbd40aea5bd01e860U, 0xbca557ddbcd6c0e7U, 0xbc865f823a9553a0U, 0xbdeb82483cba4d4fU,
  0x3c076af03cb564c0U, 0x3cb078b7bcaa0decU, 0x3dc75f4cbc44549eU, 0x3a4944873c57c56cU,
  0xbc118717388a7c8eU, 0x3c75c11c3ced30d5U, 0x3c87ffa93c5e0c5cU, 0x3c945db7bbc43822U,
  0xbd71ecff3d4c1109U, 0x3cee568db9dd9d23U, 0xbcf2dcdfbd2dfc39U, 0x3c99ae773d912645U,
  0x3d02d8b0bc60606fU, 0x3d4c48743cfc9ef4U, 0x3cf686303dc7e52eU, 0xbd1c1f6fbd5fae3eU,
  0x3c927dce3d8e4753U, 0x3b8c9e623c45fc24U, 0xbd51c4013d3d9c76U, 0xbd409e14bcc972f7U,
  0xbdede0803d8d23b5U, 0xbd8537fe3c8468e1U, 0x3c345cf53d66c076U, 0x3dab61e13d50ec91U,
  0xbd2685af3aa239caU, 0x3b3b575f3d1e4358U, 0xbcc2c2f43cd0cbf9U, 0x3d39d5303d5bead4U,
  0x3d1242edbb333a44U, 0x3d3d6e33bb3b2366U, 0x3c425d5d3c25f329U, 0xbc3342b83d3f515eU,
  0xbcb5a2343d85851eU, 0x3d3d6e57bd170ae8U, 0x3d56ce123c5a4211U, 0x3b337f70bd812563U,
  0xbd3b1f083c671801U, 0x3c30ca353c91e6beU, 0xbc8d1cc6ba9bcb1cU, 0x3c2162923cf539adU,
  0x3d8a27db3cf6baf9U, 0x3d5691d73da25424U, 0xbb0e5a7cbb7e0dc6U, 0xbd9347c8bb80cbaeU,
  0x3ba034d2bce80124U, 0x3d13b1c03b1fc918U, 0xb9861d2c3c871d04U, 0xbd30ef0d3d57f788U,
  0x3c7ef2efbd3d55b0U, 0xbd8502283ce2331dU, 0xbc9e05afbd44e8d4U, 0x3bf1a75c3acca09aU,
  0xbd556645bcbe16aeU, 0xbd358a2dbd4f9262U, 0xbd227c073b38cc4dU, 0xbdadcd3e3cd2fcc7U,
  0x3c2893523d22d771U, 0xbc39a0b43c7abb65U, 0x3e40ab4d3b728bb7U, 0x3c825c273c7eaad5U,
  0x3ba25ecb3c6d0e71U, 0x3d0d0a203cdac8e5U, 0xbc29716d3cbe4765U, 0x3ca88fd9b9947fcfU,
  0xbdd9088d3d3201e6U, 0xbc2c8834bcda1c91U, 0xbd343b59bd784428U, 0xbbc030ba3d54d83cU,
  0x3caf67e83c156db1U, 0x3ddcb2b23dd9ba8dU, 0x3be70eec3da8e32eU, 0x3c4d73fdbd2f9667U,
  0x3d23769c3d625c32U, 0x3d0e51df3cbbaf9bU, 0x3a06ca9e3cb17d79U, 0xbbe367afb9d52353U,
  0xbcd6d76e3d94b7b8U, 0xbd3cc9883d034bb2U, 0xbccd819c3d026f0cU, 0x3db66f113cb587aaU,
  0xbd018951bca58e27U, 0x3c66f2703d700c6eU, 0x3cc4f2a13cafcb6bU, 0x3c6d39353d7bc41cU,
  0x3d05d2d8bba19183U, 0x3cd297bd3d0f9fb3U, 0x3d023ca23cdba353U, 0xbcd8d38a3d5581b8U,
  0x3dbb83823d0d495eU, 0x3dd96dc63c46339eU, 0x3dcc3d0a3c83be08U, 0xbcbd24b6bd34b0f1U,
  0xbd58964a3c5f1da0U, 0x3d4b69bb3d54e5ceU, 0xbc544d54bce65751U, 0x3adb5d47bac964fcU,
  0x3d7ec3f53c97f176U, 0x3c5058f03d2dda10U, 0x3c5e2ffc3c9808b5U, 0xbd4092673c1cd00fU,
  0xbda4aa843c41176bU, 0x3cb1e1413c8549a8U, 0x3b2d3a3fba81b644U, 0x3c829e163dbe4969U,
  0x3c3261f4bd1e2252U, 0xbdc18cfb3d274fb7U, 0xbd0c7498bcf5240cU, 0xbd86880f3d505bfaU,
  0xbd989a20bc7348adU, 0x3b64fa28bd2f6a5dU, 0xbd4c890b3b1f1a61U, 0xbdd0dc303cef04a7U,
  0x3cd7a3013d28dc76U, 0xbd10d3ffbc9be218U, 0x3dea12b03cf83e56U, 0x3c8388a13cf74eb3U,
  0xbb974c413cb01bfeU, 0x3bee00883d0a3929U, 0x3abe605c3d5c88f2U, 0x3c7950033cba7eedU,
  0xbdfabd733ce91aa3U, 0x3ce41e6f3b855b07U, 0xbd4bcd0cbd97cef6U, 0xbc5fa3823d5b55e4U,
  0x3d628887bc52156eU, 0x3e3c9a253de26075U, 0x3d2a2b583d5fc198U, 0x3c5f4c1fbce4979cU,
  0xbcc2eeb63d4d2b89U, 0x3d0106e03c8db27cU, 0xbc674a963c3a09d7U, 0xbca7fafc3c125043U,
  0xbc236f1b3da81981U, 0xbd3851d73c822bd0U, 0xbc78666c3d157596U, 0x3d8f5cdfbc437886U,
  0xbd252c49bc64bf4eU, 0x3c0007723d8a8b39U, 0x3d95fd0b3cdd24a2U, 0x3d054f0b3d859636U,
  0x3cf7d27d3c5f1929U, 0xbcadcdf3bbcbac1cU, 0xbd0a95453cb833ebU, 0xbd8627ef3d4932cdU,
  0x3d8c430b3d32e695U, 0x3dabe4dd3cd5d1c5U, 0x3da3b6e13d1f6367U, 0xbc89ca6d3d150b9eU,
  0x3c5aef873b6d51b2U, 0x3cb81a2f3e17a63aU, 0xbb8e64a3bce93051U, 0x3c97d1b33be53f04U,
  0xbcac61c33c375388U, 0xbc81150e3da95921U, 0xbd0dbdbfbc557d52U, 0xbb926282bdea3f9bU,
  0xbce53efcbdaec184U, 0xbd31cdf2bbd05512U, 0xbc9171f3bd961f52U, 0xbcfeeca1bb26dcf4U,
  0xbb5ab1e63cf422c6U, 0x3b3fc2ccbc03d2fdU, 0x3c64c9213cd0f06aU, 0x3c4eab033c6c8292U,
  0x3cae0994bc9d371eU, 0x3bb18ce73ce077ebU, 0x3c537b38bc9b9e1cU, 0x3d9bbe2e3d1d8d03U,
  0xbd065b3fbd489a58U, 0x3b3f68da3a0fe938U, 0xbd2d3c7abc003f89U, 0xbdd5b9b43cc67034U,
  0x3d3c59cbbc888620U, 0xbb79d238bdc16420U, 0x3d8ece58bc57d7fcU, 0x3c6981bbbd824d8dU,
  0x3d2abde23b99457bU, 0xbca35bcbbd2952ffU, 0xbdfb4b3d3c0d641fU, 0x3cc6756c3d5ca87bU,
  0x3d2022e2bc77b37bU, 0xbcd7f3e6bd9db593U, 0xbcf7fcb3bb5ec5d2U, 0x38889c573c6cffd6U,
  0x3de2eaaa3cd5c69eU, 0xbd598b693cd77937U, 0xbd9c3b393d6a3eb8U, 0x3d9357ffbced0ad6U,
  0xbd81f2323c652ce5U, 0xbd098a753c5168abU, 0xbbf24e433d2ca3fcU, 0xbcab0ef33d16c548U,
  0xbd815621bc83ef86U, 0xbb80e3833caaf26dU, 0xbd95823cbc2ed1eaU, 0x3e082b4b3d874d22U,
  0xbc1803da3c37e82aU, 0x3c235613bd793a5fU, 0x3e868c5f3cb1a1a4U, 0xbd778c8dbc5162a6U,
  0xbcda00b7bbbce415U, 0xbd2f361abdbbd8d0U, 0xbe108c273d2dd29cU, 0x3c5146ecbd6e64afU,
  0xbbc8da9a3ca720c2U, 0xbc8974d3bc2eec41U, 0x3c09dddb3c7f1244U, 0x3cb87130bb68d171U,
  0xbb90decabc3d1761U, 0x3e2640ccbd1bbc7dU, 0x3c62014ebcb5639bU, 0x3b92c254bd6aede2U,
  0xba8d8bd6bd62869aU, 0xbd813ba0ba8ac487U, 0xbc127091bd8b02b1U, 0xbd224f813b92e5c8U,
  0x3bc4dca33ca8bba0U, 0xbcb00033bd0002ecU, 0x3c747db43bcb1f16U, 0x3c8a585f3d1cc865U,
  0xbc0695f4bd694cfeU, 0xbb8299893b9bbcc5U, 0x3b1ed822bb3239d9U, 0x3ceec4163c3c4ad4U,
  0xbd4d1d1fbd104f59U, 0xbbdd6ac73c83d503U, 0xbdde8227bd07eeecU, 0xbd8009453d053e5aU,
  0x3d0257e6bcb28441U, 0x3c278c10bd63085dU, 0x3cf147633c417bd4U, 0x3c069601bcc9eeafU,
  0x3c12933ebb88689eU, 0xbc33aa00bd2104c0U, 0xbd4e1663bc1ec5ffU, 0x3cad38473c4b4a82U,
  0x3cea2348bd1d79f5U, 0xbd29dd41bd95bcf8U, 0xbd3bd2a2bb5cd58bU, 0x3c8cdff5bcac5ab0U,
  0x3dcb71933cd07ed1U, 0xbd113f593d0b30aeU, 0x3cc1cb0f3d96a1ceU, 0x3d3ed5e83c92f09aU,
  0xbd0db7973bf5f0d0U, 0xbd715e8abd010e1cU, 0x3ab8c41a3cc90361U, 0x3c93941e3dc1f482U,
  0xbce288c2bce2a6e2U, 0x3bb7caee3d1700f1U, 0xbca7e323bd572bd8U, 0x3e06fa7a3d202be6U,
  0xbce395023cba7108U, 0x3cd495aabd39f03eU, 0x3e69531a3d2ecbf9U, 0xbcdbaaacbcd70586U,
  0x3d8e8d18bbabbd66U, 0xbb9ef14abd604bb6U, 0xbcf853733c711ff3U, 0x3bb8f3dcbd708276U,
  0x3d4c956abb332a24U, 0x3c3842be3cd5b852U, 0x3cc939593d03c4b0U, 0x3c9fba1f3bd55aabU,
  0xbcc6096bbcb5608fU, 0x3d8bf37d3b1e9cc2U, 0x3ca032073b46f035U, 0xbc81fb4dbd2f3739U,
  0x3caa2e91bd509393U, 0xbc55c5aebcf0d58fU, 0xbd68ba57bdf5b773U, 0x3c8bc0183d039e7bU,
  0x3cc89f1dbc08c167U, 0x3c7a952dbd6ac91fU, 0xbc85ce033c8bbd75U, 0xb9c4f8713c9c566bU,
  0xbbed7a96bd77093aU, 0x3b8cf1e8bba4c511U, 0xbd2d357b3c3af01eU, 0xbd1e0e5a3cbccb92U,
  0xbd68be1fbcf2d53fU, 0x3cd2fb303d28c114U, 0x3b960c1ebcbd1f3bU, 0x3beccda53c0aa50eU,
  0xbcc049cf3c0eba4fU, 0x3d3831ae3bd98a49U, 0x3d9167a83c444863U, 0xbb7e58713bcfda2cU,
  0xbc8b8d203ba7b766U, 0xb9a062f3bc4672f2U, 0xbd2b2ec3bbbf046aU, 0x3c8244c23c88abbbU,
  0x3cca3f8ebd19158dU, 0xbd84e392bd5288d5U, 0xbd31cafdbceff569U, 0x3d88fc3abaddcff9U,
  0x3d830f563d3b4e5eU, 0xbbeff4f33cefa31fU, 0xbc999f283d10d23eU, 0x3aa1925b3d09db63U,
  0xba81c3c53c8cb594U, 0xbd2b2f2c3a788f1fU, 0xbbadc1ae3cc64b34U, 0xb9c8a8943d828addU,
  0xbd3acf1bbc3cd25aU, 0x3bd672453d4def2bU, 0xbb49b9cbbdaf29e9U, 0x3d448ed53c21dcf1U,
  0xbc5be59a3cad1958U, 0x3d0e1db13cab5bffU, 0x3dafa6db3d31e2d4U, 0xbd5ca3efbcbcb10eU,
  0x3cf21e383c83b446U, 0x3d1c0482bda15aeeU, 0x3c7ee2f83b8fd128U, 0xb9aa40e9bc20ba95U,
  0xbd1935473cbd6128U, 0x3c22b4843a68464eU, 0x3c4d60543c94ffffU, 0x3c4bb319b9d4fdc1U,
  0xbca117913c843f1eU, 0x3d9b369cbc00cc2bU, 0x3c717b2c3ad6574eU, 0xbbd7dc30baee5685U,
  0x3de70e4fbd349cc8U, 0xbc01a9d7bce49bb1U, 0xbd90993bbdf20339U, 0x3c0977f63c170c14U,
  0x3c9da406bcd09dcaU, 0x3c3deb9ebd9e7e38U, 0x3a8c6bafbc5a7d95U, 0x3c2dbbdcbbcb6057U,
  0xbd7565f7bd8c00b9U, 0xbc5c57c4bcb4f259U, 0xbd60d0223c921bc0U, 0xbda8e0c63b6f0788U,
  0xbd3a2c96bd06f262U, 0x3b86f0bc3d4baccdU, 0xbd7c0fcab910c87eU, 0xbbfc06a93b15fc6dU,
  0xbc2c37923ce6183bU, 0xbbe28fb0bd141a41U, 0x3d913a44bbf02040U, 0xbb9bba8b3d4b137bU,
  0xbca29e5d3be7bbb9U, 0x3c22a6463d6ba70eU, 0xbc4102c5bc3b8643U, 0x3c9790db3c096648U,
  0x3c5fafe1bd08d5ecU, 0xbd3563e9bd74e8d2U, 0xbd7842b23c88343eU, 0x3d94165cba75b537U,
  0x3db8ddc43d610658U, 0xbade29f33cdcf536U, 0xbc94cce33d434a2fU, 0xbcd400393d7ef7bbU,
  0x3d71abbd3c95b793U, 0xbd1b37313c595517U, 0x3bd165ca3cdbd7bcU, 0xbceb3b06bc501e55U,
  0xbd18588dbcc32307U, 0x3c3b53863d5692d6U, 0xbd359f93bdbc86d4U, 0x3cabc872bc888690U,
  0x3cc5ab183bf440f9U, 0x3cb01cbebc831038U, 0x3e35fbeb3cc88b4fU, 0xbca3ea61bcd9455dU,
  0x3d539bfb3c68cbbaU, 0x3ce61cb43c569fe0U, 0xbb7ebf513d96e5fcU, 0x3ccd692d3c8f0418U,
  0x3b5b9a113bbd075dU, 0x3c862e5e3c63d246U, 0x3d4cb5de3cd11871U, 0x3bffd832bc77f1d2U,
  0xbda1a0b2bd4c87f0U, 0x3d74db21bcf5eac2U, 0x3bc78cd43c2aec21U, 0xbc43f3f5bbc0f834U,
  0x3d120205bd7f6fa8U, 0xbbc621a6bbb20bbfU, 0xbd242a85bdfe90f2U, 0xbc663a3f3b7a25fbU,
  0x3c002a6dbd0475e4U, 0x3c8aedc1bd413ec9U, 0xbaf6a6a23c8a06caU, 0xbcfd5a2e3c7aeeb6U,
  0xbd88276cbd263da4U, 0xbcfc9709bd0e64feU, 0xbce9856e3c14cc7cU, 0xbd4f2c673c38fc32U,
  0xbcf7c788bc10cdedU, 0x3cb233313d05f9a1U, 0xbd9cc7cebc98735bU, 0xbc0cba0ebc68818fU,
  0xbdb6d0ed398cfb78U, 0xba50f3fdbd0d34edU, 0x3d85f81f3bfde09aU, 0xbcec74db3bed56cbU,
  0xbd1156013bcd79b4U, 0xbcfb14d83da8e419U, 0xbc3321e9bcb4e19eU, 0x3b12c8e7bbbc029dU,
  0x3d898f62bcd478eeU, 0xbc7b1bbcbdaf05a0U, 0xbc5fb521ba65dfa4U, 0x3db9f1923d0b0270U,
  0x3dba734b3d1250b2U, 0xbd5fddad3be907d8U, 0xbd42480c3c8b1b67U, 0xbcb5a9f5bd6e04fdU,
  0x3d5afb963c4b1258U, 0xbca43179bd2bc3dcU, 0xbc81cbfa3d26bcf3U, 0xbd6463bbbc96a23cU,
  0xbd23ddd9bc8e990dU, 0x3ae4219f3d594a70U, 0x3c8f26a8bd533ceeU, 0x3ab00911bc75bcbcU,
  0x3d06f0803c6c9d26U, 0x3b7d49443da9e5c2U, 0x3d8e1b643d6be676U, 0xbd88beaebcbce3e0U,
  0x3b50dca13d01d9e4U, 0x3d232a1e3ce24ab1U, 0xbb92aea03cf839ddU, 0x3ba36d013d88ac48U,
  0xbcdd98073c30ce1dU, 0x3d06dc43bcd1eeb1U, 0x3cc724f63cb84444U, 0x3c8f1ca7ba79b09aU,
  0xbe0e44f8bd298943U, 0x3dbafd8fbcf97c50U, 0xbbe47d603c925370U, 0x3c05eb56ba9e6ca5U,
  0xbdb6c312bd89276aU, 0x3ba05c1dbc4e7b60U, 0xbca5f456bdc65becU, 0xbd7bb0c039e36acdU,
  0xbde07cd5bc6333d2U, 0xbcd62a2ebc22da44U, 0x3ce877b83b236665U, 0xbd1d4cab3bb595d3U,
  0xbd2fd3bcbd1cc948U, 0xbc817023bc87b2a1U, 0xbcd1f9e13cbd9c29U, 0xbcf0d7aabc69702cU,
  0xbd89cd88bc91be12U, 0x3d380468bb90fc66U, 0xbdc98a363cb07901U, 0xbc66a24fbc379796U,
  0xbd39a06abc510cd9U, 0x3d11fc48bd33e9aaU, 0x3d11804e3d0952ceU, 0xbc0120d53ca1ecf6U,
  0xbcc12eb4bc6cbf7aU, 0xbce877cd3dcc1479U, 0x3c60c7f9bcdbbbdaU, 0xbb5f8d4b3c914ec2U,
  0x3d9840aabd062027U, 0x3c5470ebbddf8ad9U, 0xbc531d14bc953a3fU, 0x3da0fac63d38c124U,
  0xbc269e6b3c7c8eefU, 0x3c457215bb9bb784U, 0xbdb563de3cd79961U, 0x3c90d6febc985ab3U,
  0x3d5fc1c73c5fd239U, 0xbc4881ff3b5d0110U, 0xbc7c447d3c826486U, 0xbcc471d73c959b59U,
  0xbd268fbabb2367ecU, 0x3c0067a83d544abeU, 0xbc175ea8bd79de38U, 0xbc7f77ebbc8b72a7U,
  0xbb30462a3cc0e3ebU, 0x3ca00bca3d8f865fU, 0x3d6b9f5d3db3b492U, 0xbbf7bb0bbd0ea78cU,
  0xbd0451313cc336dbU, 0x3d94a2143b66d3ceU, 0xbb7278963d7d19baU, 0x39a6e8a43dca7fcdU,
  0xbd04f7423c9df02cU, 0x3d9508c1bd248fbfU, 0x3c564a963c6b6cc8U, 0x3c1238953c67d61dU,
  0xbdcad456bc455592U, 0x3c967386bc0f94e5U, 0x390f41be3c3df012U, 0xba83291abc39da8eU,
  0xbda7c8b8bd8b311eU, 0xbc4bed74bcfcc3eeU, 0xbd0a452ebd7fa4baU, 0xbd47f913bc0fa913U,
  0xbd98b757bce97bd8U, 0xbca75841bbff9ac2U, 0xbd32802d3c245779U, 0xbcf1f260bce67132U,
  0xbd229041bd2e7155U, 0xbcdb0881bd23ae35U, 0x3cf0858a3d0ebf96U, 0xbdb1e9a4bd48d38cU,
  0xbd5a4cecbbd888d5U, 0x3d171961bd67d31dU, 0xbdb6c8873cca915bU, 0xbd5fb901bd13775aU,
  0xbd16751db98fde3bU, 0xbcfb2277bda012ffU, 0x3caefb0d3d54fb87U, 0xbd44d9d3bd2b9b53U,
  0xbd3fc379bc2b2743U, 0xbc9af55f3d4880e4U, 0x3cfdf879bcdb4e75U, 0xbb58af133b6affe5U,
  0x3ce18a703acf91ceU, 0x3cae22a7bd99535cU, 0x3b9a21c73b2eb187U, 0xbcc6f06f3d1f3800U,
  0x3d88f5a33cf33e8aU, 0xbaaa398c3c654c9aU, 0xbd4ae0553d19f2efU, 0x3c0e4c42b98c5323U,
  0x3b9595dc3d140f4dU, 0x3c8f24d83cba11c7U, 0xbca11d7f3cc37894U, 0xbd703d3cbc8d8bcdU,
  0xbd22c382bb965010U, 0x3c948b073d09a957U, 0xbd39d291bc22cc21U, 0x3cb444d2bcb5b207U,
  0x3d1871083d1e2871U, 0xbaf1232f3d878997U, 0x3dd42d563db289b5U, 0xbd207513bc0f9768U,
  0xbd64a7193c4a2c59U, 0x3d655bf4bd076ba4U, 0xbb9328a03d711771U, 0xbcd1e9f13e0c954dU,
  0xbda352433ccfef1dU, 0x3da899e5bd63bc8aU, 0x3d053b1a3c4e5339U, 0x3c8704ed3d1faecaU,
  0xbda15fc33c9ed755U, 0xbc583bb33c9464d2U, 0x3cf3dec6bbf6208eU, 0xbd11a1b5ba5c3631U,
  0x3c99fc58bd81c69bU, 0x3b85599abc299ff8U, 0xbd298471bd927979U, 0xbc7aac69bc44baeeU,
  0xbcd42dacbd6b3ad5U, 0xbd0a4d8bbbccfdffU, 0xbdbc9d8bbc1c6003U, 0xbc4ef998bd993130U,
  0xbd344ab0bd2fff5bU, 0xbcbdbc55bd421a1fU, 0xbc56d80b3d1f6a6dU, 0xbd93baddbbc5c635U,
  0xbd6c339dbd259bf7U, 0xbc94cf22bdafb5f6U, 0xbd42c0a53d21d06fU, 0xbcf8baedbc8835fbU,
  0xbd356ecb3c2e0304U, 0xbd5035cfbc713af1U, 0x3d059a953c085c65U, 0xbc9f87f1bc478b1fU,
  0xbd3685b63c71b766U, 0xbc6da1a73c8f2b84U, 0xbb8e41c2bcebd272U, 0xb9efe4263cd81928U,
  0x3c18e9bebb2f6a50U, 0x3bec622bbd085b09U, 0xbd2b54f83b885d24U, 0xbcc706bb3d65d2ecU,
  0x3b0224123d873a7eU, 0x3a380e4dbb507d07U, 0xbd839ed03d5418caU, 0xbcb441a83c77afecU,
  0x3c6fdd74bc9e2441U, 0x3c902b333d2f52caU, 0xbd80fe3b3cc3c358U, 0xbd792178bd66ede2U,
  0xbd15a508bc87f7eeU, 0x3c3995b53d31ff68U, 0x3c30ab0fbd60326eU, 0x3c9535cdbd6188ecU,
  0x3cf3fe223cf6627cU, 0x3cb203eb3dad97d2U, 0x3d6edea93d86f341U, 0xbd13d2b3bcdeac2cU,
  0xbda3527ebcdeb644U, 0x3da7b6d73b95a152U, 0xbb31cdf83d338a9fU, 0xbcd941e03d8a5762U,
  0xbdbc006c3cdd843bU, 0x3dd8f0b9bd5d8d7bU, 0x3ce4abc53b606290U, 0x3c8b50b13d0d0222U,
  0x3d0edfeb3c24274aU, 0x3c6542fa3b1d4a72U, 0x3b7bd7a33cd3495eU, 0xbd6546f4bb7f4a03U,
  0xbd3429b4bd3222faU, 0x3c832c2cbc7c359cU, 0xbd5c4dcdbd58ab8dU, 0x3b172a723c8dcd31U,
  0xbca5e778bd7ea8edU, 0xbc4c74363c5a5812U, 0xbd8bf2413bc02823U, 0xbd14d2efbdcc1554U,
  0xbce515b8bd436139U, 0xbc294710bcf4175bU, 0xbcef82db3d0d03ceU, 0xbe3bd3ddbca84bb4U,
  0xbd4e0be9bd566797U, 0xbd018665bc52b6d2U, 0xbdbe846b3d4e00d8U, 0xbc0333cb3b0588cbU,
  0xbd0db80a3ca1d4efU, 0xbcd5bf3dbc122618U, 0x3cfd3d223d750bc2U, 0xbd10ec5f3ca132c3U,
  0xbc33757cbc0c6a23U, 0x3c9df4f3bcb8b6d9U, 0x3ce9dcb6bce0f9e2U, 0xbc91ebb23d18a0b5U,
  0xbcdfecc03ba30b58U, 0xbc5ee457bbf1da9fU, 0xbcbcd2373cbdacdaU, 0xbd824f343bfb84f9U,
  0xbd9dd5613d928120U, 0xbd20b7083ca0914eU, 0xbc9629c63d0d1d8aU, 0xbc35bfe3bccaf7ceU,
  0x3bf7d61dbb86a9cdU, 0x3c9ab2f63da46815U, 0xbd198ef83cfc921cU, 0xbd91d84cbd524175U,
  0xbc47d947bacabf91U, 0x3c6812fd3d5c030fU, 0xbcd2a90fbd851c64U, 0x3cac3bc1bcc1274bU,
  0x3d4657f53c0ffa72U, 0xbc8c61873d3558ccU, 0xbca4f96f3d1b1775U, 0x3a43bcecbcb78b39U,
  0xbc00f55fbc9e32bfU, 0x3d13e4edbc55a029U, 0x3d8aa4833cbf8c9aU, 0xbd0ef98a3dd4a763U,
  0xbdb441c93c5d09beU, 0x3dd559acbd054563U, 0xbc7b0a4a3aa09c26U, 0x3c178f153cc3ec9bU,
  0xbc3031bc3d0d1b58U, 0x3d1fef063cd72883U, 0x3d70474b3d363977U, 0xbd9dbef23b002e6eU,
  0x3cfc4433bcf804aaU, 0x3c085895bcbbc3cfU, 0xbc76434cbc7584f4U, 0x3d3a5cc73ceee380U,
  0xbda56625bd8941f5U, 0x3bcbf3cc3d38f884U, 0xbd87342eba16c338U, 0xbc86dccdbd87e0d4U,
  0xbd422aabbcbf0455U, 0x3aab8d51bcd6e9bfU, 0x3c52fbac3d2516b1U, 0xbe518e0d3ca121bdU,
  0xbd4a8a31bd1f5012U, 0xbd7bc0e6bd87cd18U, 0x3c94e4373d3c4dc1U, 0x3af220dfbca30ac9U,
  0xb9e37f863b81b1cdU, 0xbc6d2b2c3cf903a0U, 0xbcc9a5ea3da2fceeU, 0xbc28cda93d958022U,
  0xbcb754463c8faa5dU, 0xbc86efa1bd5717efU, 0x3d12bb69bce67186U, 0xbcb513243d2073ceU,
  0x3c3417753cc83c66U, 0xbd4291493ca1a074U, 0xbbde592f3c971bc7U, 0xbdac94f1bc30425dU,
  0x3cd31de43d55dc34U, 0xbd13e6003bf2816eU, 0xbd8a4fb53ce2303eU, 0xbd24c1423bd8c0c8U,
  0xbd2299ba3bff1401U, 0x3d0a54413d3e2b8bU, 0xbd22d7a33d0c1628U, 0xbd27d274bd1720ddU,
  0x3c3c90c1bc1f2729U, 0x3bf92cfe3d8d223cU, 0xbcae34c5bcf84310U, 0x3b875d653c087f5cU,
  0x3d7a3ea83d01b1d9U, 0xbc29c4373d39f13bU, 0x3cbbbbbc3cfdef41U, 0xbc0df239bce03cf9U,
  0xbce51c413cfc4bedU, 0x3d1af1b23d244b0aU, 0xba2279c23d05833dU, 0xbd4d532c3d3a9cccU,
  0xbe1714653cd970b8U, 0x3d837345bd3f33a7U, 0xbd7fea5fbc56caaaU, 0x3cc505d03d39befcU,
  0x3be667e23d0f5a11U, 0xbd2b8b333d0584ffU, 0xbc56b82cbd26f688U, 0xbdd9f7d7bbfcac15U,
  0x3b93b682bbfe30f1U, 0xbd4082a1bcd101a3U, 0xbcc00d523d17db66U, 0x3b6665e73c2af18dU,
  0xbca9923dbd533d5fU, 0xbd42f5f9bd6c3a36U, 0xbdd144abbcd20420U, 0x3ce372c1be2ebfeeU,
  0xbc8f3ed2bd14c52fU, 0xbc620fcfbbbf44a6U, 0xbdcbe4f5bc81046bU, 0xbd0f21dbbca2f77aU,
  0xbbf211543d54b9feU, 0x3c4776143cdc00e8U, 0xbb5799593d2fdc76U, 0xbc059ed13bdf5fcfU,
  0x3bcd9606bcc5eff3U, 0xbd9a067abcfe9a9dU, 0xbdc61e9cbc2c6ad7U, 0x3c082e893cac9e0eU,
  0xbdb55b323cd977c6U, 0xbc1a7e0d3c5cf714U, 0xbd3553013bb57e90U, 0x3ccee3de3b85a508U,
  0xbd05e7abbd3ef451U, 0x3cd23c4cbd597be4U, 0xba8c97273ce4b98fU, 0xbd4fbdf1bcecf99aU,
  0x3da06a143ccd3511U, 0xbc45615e3d018c51U, 0x3c4442343cdff4b7U, 0x3da91fdf3ca6798aU,
  0xbe1f891d3cf65cb4U, 0xbc59646f3dd30300U, 0xbce1799c3c1720a7U, 0xbd88d3fcbc1a6eb8U,
  0xbd8202ea3c7717ecU, 0x3ce096853c91d5d0U, 0x3d8b6f57bd710967U, 0x3d1dd5e5bc78ca80U,
  0x3c7a291d3db59372U, 0xbdaa55a4bd28f92eU, 0x3d5bb5b23d937789U, 0xbcdad4c7bd401fa3U,
  0xbc3bd4933cda39c2U, 0xbb4a978cbc95d86aU, 0xbc81a43d3d73f948U, 0x3c9dfbc33d8f6050U,
  0xbbbcaf903d105dd9U, 0xbb240149be0887edU, 0x3b545e5b3c8850e4U, 0x3c370c613d712842U,
  0x3caaca083c8e667eU, 0xbcc075edbc2a5321U, 0xbcd32df8bd3ef0a4U, 0xbd85933dbc03bac3U,
  0x3c2166be3b80c7d5U, 0x3c86ed2a3a8ff35eU, 0x3cb0ea6a3d1bcb92U, 0xbc4ea5f33ca5d39aU,
  0xbce19a553ca9cd9aU, 0xbb2d9ddb3c9510a2U, 0xbdf84c933bb42f5dU, 0x3cbfc97fbdc6e2bcU,
  0xbc51a0b83b1dc697U, 0xbc3d8c9bbc1bfb33U, 0xbc9ede1cbd27d463U, 0xbcee9b8d3cadb12fU,
  0xbd383732bc6057d2U, 0x3cd581c83c83afe1U, 0xbd47594a3c466fefU, 0xbce60749bc4e69f3U,
  0x3c7126e4bcec40b3U, 0xbdf36f13bc58a7bbU, 0x3cbddfcf3a48dce4U, 0x3c8d4c8dbd7e7291U,
  0xbd8aa2d03cdc257aU, 0xbd12077d3b31fa26U, 0xbd383c173ceb4809U, 0x3d13b53bbb8ff1aaU,
  0xbc656d96bd05510bU, 0x3d85f59dbd0857e9U, 0xbc67307c3cd671ccU, 0xbd24b023bcd1f5c0U,
  0x3d26e1423ce23f2bU, 0x3cc8bc8e3c98f64dU, 0x3d80ce633d319f55U, 0x3d4d06f63d67df42U,
  0xbb1c65dc3d87b8b6U, 0x3c6d37253da3d913U, 0x3cbea5a53c11b162U, 0xbd295551bce52f3fU,
  0xbcc5e06c3c9a3087U, 0x3ce74c753d03ec04U, 0x3d8565c0bcbe1b39U, 0x3d7554ef3b7c4722U,
  0x3c66818d3dccf9dfU, 0xbdb9e3fe39929e74U, 0xbc90c7193db774fdU, 0x3cf99b11bcd0a085U,
  0xbcf054053cfd2107U, 0xbc798b133d0c5c55U, 0xbd46f64e3d221db4U, 0x3caffbb03dfd5aebU,
  0xbce848103cb153abU, 0x3d0b1d6bbd2a1b9dU, 0x3d2d9cd03b66e209U, 0x3d2235113d5c7603U,
  0xbbbb14a83d7027e9U, 0xbd2342d5bd47c5b5U, 0xbdb9ecf2bc40ae6aU, 0xbc8f9cffbd297ae1U,
  0x3c51a4c13c0e24e9U, 0xbc516465bc901044U, 0xba9518ee3cbe2a02U, 0xbc0d176f3d2ef0baU,
  0x3a5d71413c0df3ceU, 0xb94f40613c92ea3dU, 0xbda5bd5abc23f6cbU, 0x3d3c132fbd4439bdU,
  0xbc822b9ebd0a0186U, 0xbc59b790bc99e4b4U, 0xbd42edacbd275220U, 0xbd28b262bd034f43U,
  0xbc1a6802bb6da50cU, 0x3c6252c23c78cc2fU, 0xbda2bdce3c71884bU, 0xbd101358bb99f455U,
  0x3c8d325dbc98c325U, 0xbd2bc303bd0077faU, 0x3cacb3563bdef06bU, 0xbc7ab625bda760e9U,
  0xbd512ababaae533aU, 0xbc0789fc3c311464U, 0x3b3d0a083cc5768eU, 0x3bd0daf8bc82d422U,
  0xbd0406353c342a8cU, 0x3d18baaabd24daeeU, 0x3c0ea0573d50647cU, 0xbd5295a3bd13ce6bU,
  0x3d375ef33cce79caU, 0x3d30e8243d0f3c89U, 0x3cd18f793d0c8778U, 0x3d1b90b1bc479954U,
  0x3d11f2513d610b1eU, 0x3c481a333d3c3124U, 0x3cf26d793c64e890U, 0xbd32e966bd1d2dd8U,
  0x3c78a36a3be4c06cU, 0x3bd315f33d239784U, 0x3d57de953c1907caU, 0xbc88dac43cb81b83U,
  0x3c4d8d7c3da31643U, 0xbdd2be1b3cad1de5U, 0x3d597d2f3da20dbbU, 0xbbd8b501bc0e00bdU,
  0xbce76fd13d74655aU, 0xbc6842c23d99f251U, 0x3bedc7363c51e6e9U, 0x3d03464f3e0ca509U,
  0xbd1fc2b03cff77fdU, 0xbbedb915bd65dc27U, 0xbd2649663cb92730U, 0x3d1b0a5e3d8a36ffU,
  0xbc86b0093d914253U, 0x3d0ec06dbd73c8e9U, 0xbdafc3f1bd6c7cc1U, 0xbc3a19d1bdbe4440U,
  0x3ca0c927bc1aa839U, 0xbd3ac7ffbc1107d7U, 0x3d09a6773c0a3d33U, 0xbb5856343d3c760bU,
  0xbc9ece1d3ccff9bcU, 0x3b0381373c32ca0dU, 0xbc348ac43b303c25U, 0x3c8fd0abbc7efdecU,
  0x3aa5af04bcbe2137U, 0xbcaec8943977c07cU, 0x3d14dd5fbc93d7f1U, 0xbdcd0b3abd75df52U,
  0xbd0f46bcbc9f95aaU, 0xbbae82c9bc3e2cc3U, 0xbd7709c7bc2cbff1U, 0xbd0b6bc4bc2fd17aU,
  0x3d2f98a9bc32c475U, 0xbde87d80bd7c1012U, 0xbc39d8ed3d10cd01U, 0xbc87e5ccbdea04cfU,
  0xbc84696e3cf027e3U, 0x3a19e5c0bc37e9d1U, 0x3b412da73ce40ab3U, 0x3cf660f3ba9f7939U,
  0xbd0e3d0d3ca3c5aaU, 0x3d588d263b526fc3U, 0xbc7bffb13d79a2feU, 0xbdaa8883bd5a588cU,
  0x3d0727643ce358e4U, 0x3d42a1173cbfc857U, 0x3d5e41d73d414b42U, 0x3d260342bd2fd5e5U,
  0x3d8318f33d43b145U, 0xbc303ece3cc0ed5cU, 0x3c9135343d06047bU, 0xbd395ac2bd818d5bU,
  0x3cb14a733ce8edfbU, 0x3d2db1733cb1dd61U, 0x3ddb5172bd1530b8U, 0x3c8330703d12a5e5U,
  0xbc2e9e993d7695beU, 0xbbb0d0773d97d558U, 0x3c544ea63d6ca7bbU, 0x3d2cc59fbc26a354U,
  0xb6a0c9933d2df8dcU, 0xbc8b18cb3ccc2b5cU, 0x3d02bf0b3cfa7d25U, 0x3d0217103d828c8aU,
  0x3c7f9d2a3d51fda6U, 0xbce5ab863c5ad0b5U, 0x3c7d6f203cdb041bU, 0x3d19abb53d8e477aU,
  0xbd2630db3c409631U, 0x3d229729bd091ee3U, 0xbd965c45bd74a0a7U, 0x3d161d7cbd4fd9f0U,
  0x3d8139a6bcf30fcdU, 0xbd9bb5cabc6ea5a7U, 0x3d54e824bd0c4484U, 0xbd725093bc022507U,
  0x3d20b1433c29b9dfU, 0x3c13191abd3b1e10U, 0xbbee84cb390aa557U, 0x3bc870babd16488fU,
  0xbd186ac9bd465414U, 0xbc935246bc1b2e55U, 0x3d395173bcb9aeb1U, 0xbc212de1bd9d8977U,
  0x3baad578bacd9814U, 0x3c3a69543931d885U, 0xbd2c88f0bba2f993U, 0xbd602698bb106168U,
  0x3cb7d110bca893beU, 0xbca13937bcda7dbaU, 0xbd98f142bc86ba2bU, 0x3b93c355bcd31551U,
  0xbceb3ff53c541c58U, 0xbc0e36823c88af44U, 0xbc448f3b3d59602aU, 0x3c51730a3aac79e3U,
  0xbdaf7b8a3cd1be9fU, 0x3acdb2513b383e28U, 0xbc9274d23c3b1b20U, 0xbd6f65aebddacdcaU,
  0x3c545aff3d75d574U, 0xbd04f7953ca319c0U, 0x3c8e9eaf3c9fac5bU, 0xbca64565bbccb1e6U,
  0x3c4b478d3d3dfc13U, 0x3c95c6f73ce6b37dU, 0x3b7be2653d2cc2deU, 0xbd40076ebbb6659aU,
  0x3d9fd1ac3d0a82d3U, 0x3d2999db3d00f488U, 0x3d200137bd9c4343U, 0xbd02f5003b5e7975U,
  0x3c8ff7263c325427U, 0xbd24ba703cf053a8U, 0xbda74c693d712a9aU, 0x3d4596bcba4d6343U,
  0xbd4e03503d1f1ec1U, 0x3b953bc3bb22bba2U, 0x3ca489c03b3e3186U, 0x3c4fce83bc771ed3U,
  0xbca87bfd3d2e8a38U, 0xbd02b2e7bc2d7142U, 0xbd233b943cd181f0U, 0x3cba74d83d1e8a45U,
  0xbd4a99bc3d05fc3fU, 0xbd05773d3c40b8c4U, 0x3c4d06f0bc96434bU, 0x3d2498c2bd671c79U,
  0x3d1a55fbbd8e4e74U, 0xbd56f681bd0b7677U, 0x3dbed0cabd898fc2U, 0xbd6ad77c3bc44c82U,
  0x3d03e7d7ba887b98U, 0xbcd3c8eebdbf3a84U, 0x3c24722abc21d9dfU, 0x3c22a4bbbc1864cfU,
  0xbc0eca6dbd7100d4U, 0xbcc1dd26bc8a9e69U, 0x3c5522a33c7d23c4U, 0x3ce66d85bd96c02cU,
  0xbbf4d7c13b7bde46U, 0xbae3703abca466d3U, 0xbd0f22d9bc545719U, 0xbd3f08b5bbfb5400U,
  0x3ca2d5733a48020fU, 0xbdaf40d03d1acd6eU, 0xbd1618f6bceeec6cU, 0xbc2ed242bd156f51U,
  0xbc1ae3523c9fec39U, 0x3c4c13163d06f91dU, 0xbc3e810f3d6ef360U, 0x3d0a4db93c5024fdU,
  0xbd950835bbe8a2d1U, 0xbd1f7bfcba1e977cU, 0xbcc19ea83c678f2bU, 0xbdd0a412bd617203U,
  0x3d36b1c33d44d119U, 0x3cd2e27b3d31cfc9U, 0x3d7bffd43c76df0cU, 0xbc88881cbc193805U,
  0xbd56aa2b3d0fdc9bU, 0x3b7ab62abbfaf166U, 0x3cbf3e973c87314dU, 0xbc9a5c4b3d137dc4U,
  0x3d27e8223d3134ceU, 0x3d6738d13cf4cbddU, 0xbd4b486abdcb4bf0U, 0x3c423750bbf87e2fU,
  0x3b6a6a673c3d4fdeU, 0xbd0e9ecb3b9a10f4U, 0x3a1bb05f3c84dce8U, 0x3dc1027c3c7009eaU,
  0xbac0e6a73d15f793U, 0x3be83291bca6bf0dU, 0xbd37d485bd2acfa0U, 0x3d0a6b8bbb1605e5U,
  0xbca1d2dd3d3c9871U, 0xbd732eb23d08b460U, 0xbd1b814c3c8e902dU, 0x3d4725233d36e1dfU,
  0xbd8c55f43d39f89fU, 0xbd8e38613c5e9967U, 0x3d9cb19b3c18fe00U, 0x3c1ac449bcd2cd80U,
  0x3d00d88abd6c339eU, 0xbd2027bfbcf0812fU, 0xbcac853bbd684983U, 0xbdb641e43866f3d9U,
  0x3cf85671bc673353U, 0x3ca60c1fbd99eb08U, 0xbc132b86bc99c671U, 0x3ca47447bcc1f1b8U,
  0xbc32a8e1bdc1a243U, 0xbd3f71f8bc2d1bc7U, 0xbcd82c223a812fccU, 0x3caa6f49bd5b7d2dU,
  0x3c5d3ac1bd0c143aU, 0xbd006c6fbc312b66U, 0xbc96edfebd295993U, 0xbcd47070bcce35feU,
  0xbc04b938bbad1d63U, 0xbd84513f3d115c11U, 0xbdf823e23a4edf91U, 0xbbf1453dbc232920U,
  0xbd223daf3c424f38U, 0xbc66bc593bc16c0aU, 0x3cab62ae3d020da7U, 0x3d5604db3bdc547bU,
  0xbd090c403ca5c663U, 0xbd2ff7de3a2b3f59U, 0xbd18e7023bfcf82dU, 0xbde8b813bd608f47U,
  0x3cd792e23d186479U, 0xbccd40233c940400U, 0xbadc7298397a29d7U, 0xbbcef548bb072909U,
  0xbde11ec6bc169813U, 0x3d070c77bde8e858U, 0xbcc6cdce3d1293b6U, 0xbcb63620bd0b4ffeU,
  0x3d218eed3cb86d23U, 0x3cf212073cdf0036U, 0xbd9ca04bbdc17b3cU, 0x3c85ca21bc937e7eU,
  0xbcb08dc1bb73659eU, 0xbd307823bc37d803U, 0xbd6d158e3c3b0e37U, 0x3d30d94b3c2e2f41U,
  0x3c7b688e3d6a9b35U, 0x3c6094953bfe58f2U, 0xbd894976bcd14edeU, 0x3d34c6a63ad9dc47U,
  0x3b3c58c43d39565aU, 0x3c6bbfc33c932f74U, 0xbd526f863d6170d2U, 0x3ced859e3cb4161bU,
  0xbd985c7e3ce265acU, 0xbd4372803dd73dc0U, 0x3d53597f3d8b396dU, 0x3ba1c079bbc391c4U,
  0x3d562ef3bcda1f2eU, 0xbb68f916bd0c268cU, 0x3d6a5af3bd3bf7a7U, 0xbdb2cdaabc32dc9dU,
  0x3c65e63dbca0116eU, 0xbb06aca43c0bb9afU, 0xbd0beeaebc919bbfU, 0x3cedfc1ebc5ce5d9U,
  0xbcaa9827bdb0e40aU, 0xbd547304bc2ae19aU, 0xbcc335aa3b5f2e31U, 0x3d394e5e3cc2eb58U,
  0x3d61e101bcbdc017U, 0x3ccf80e4bd28aeedU, 0x3c5fe8cfbca4ffa2U, 0x3c215a043a06e7f7U,
  0x3a55fe3e3c53e83eU, 0xbd7372aa3d107a0fU, 0xbdcb57f13d2892f8U, 0x3b69848cbc1215b3U,
  0xbd2a68ca3c9d3819U, 0xbcaba4adbd17cda3U, 0x3d5fbb2c3cac8f62U, 0x3d56592cbc72e642U,
  0xbc4e07e33c028231U, 0xbce7c7e2bd3ddf5eU, 0x3d16c2553d057394U, 0xbd8e8f56bd07a52aU,
  0x3d4f00f43c194d79U, 0xbcb868563d2406b8U, 0x3cabb54d3ce4140aU, 0x3cf096a63d0e6fe7U,
  0xbde32052bc2f5e33U, 0x3c87b1d7bd8f9cb8U, 0xbb1468b43cab5afaU, 0x3cb407c3bd26628bU,
  0x3b6c0ccb3d29013dU, 0x3d04a9783c61f2e0U, 0xbde254f4bd74e430U, 0x3d09b7d0bc9b99eeU,
  0xbc78752fbb7126efU, 0xbc84124b3d0e0fc4U, 0x3d552d7b3ce702beU, 0x3d5088ec3cace625U,
  0xbc98e8ed3d3e20f7U, 0x3d4e36723c271eafU, 0xbd23152a3bc9a037U, 0x3cf43d273d420693U,
  0xbd16fd913d43710cU, 0x3d8326223d53e60cU, 0x3d18f6f73d57aed1U, 0x3cc36f223ca7627eU,
  0xbd7991a139a117d6U, 0xbdc758383a8481fbU, 0x3d949a6c3d1ba63dU, 0x3ce925433c2e56aaU,
  0x3cb8aedcbcc81894U, 0x3888808cbd205f03U, 0xbcf5036fbbf92f6cU, 0xbdeac801bce86daeU,
  0x3c850b3e3bddbec6U, 0x3b2d71033c26959cU, 0xbd297632bd249887U, 0x3cce468d3be14fe5U,
  0xbd41079cbded61e2U, 0xbd344398bd114cdcU, 0xbd11ad9fbc387792U, 0x3d638b403d22220cU,
  0x3d5068c3bab36ea5U, 0x3b4ae44ebdab5c30U, 0xbdb5084cbbbd5744U, 0x3ca86d14bc8ab361U,
  0x3d2c66c73ca3c596U, 0xbcd497603ca061c6U, 0xbdcf9b813d153543U, 0x3c8efe81bc2d60abU,
  0xbd976a953c400d2aU, 0xbd405f23bc3b4c69U, 0x3d922d883cf0b528U, 0x3ccf589ebc2d3f10U,
  0xbc21a2403c3e813eU, 0xbb6a3078bd9f5368U, 0x3cf90eae3d570d4cU, 0xbddfc93cbcc9c656U,
  0x3caaea233d257ba2U, 0xbd5e1df13d07086bU, 0xbc7f263b3cfde854U, 0xbd221fb53d655210U,
  0xbda832f6bc96a120U, 0x3d4a0c97bcc35652U, 0x3c5096f63cd7c15bU, 0xbb23cb44bcbca166U,
  0xbc1e53d13d26b90aU, 0x3d4140633cc26a1cU, 0xbdd3852ebdb656aeU, 0x3c902c0ebcf11a87U,
  0xbcadbf7ebc458f77U, 0xbd5e014c3d0ec8b2U, 0x3c1eded33c2c1951U, 0x3c3fa5363cc0f3edU,
  0xbd345a773d2252b4U, 0xbcaea57ebd22ee85U, 0xbc1eb6d73cff6e1eU, 0x3d83068e3c7c3657U,
  0x3cc6ab4c3d610a3bU, 0x3cb474d83d7acc85U, 0xbbb006523d6f1c68U, 0x3cfccbd23d07ab9fU,
  0xbb93e55cbcc6b259U, 0xbd5f96c6bb9e3fd1U, 0x3c8d92863cd52bf1U, 0x3cae9a973c682d41U,
  0xbb809fdf3bf54fb3U, 0x3cc67960bd63e225U, 0xbce91d90bc999388U, 0xbdeafca7bd71d116U,
  0x3b6e9ad03c191ed4U, 0xbd10b5473d122c06U, 0xbc37dbc8bca22560U, 0x3a78b65d3a8b503cU,
  0xbd1698f0bda42fdfU, 0xbd6a7aaebd68c59bU, 0x3b887618bc0c9a4cU, 0x3d456b7f3cfcb064U,
  0x3d7ed18b3c81029eU, 0xbd3eb798bdb9ed8aU, 0xbdc8950abc685f5bU, 0x3d76e7273c58a59aU,
  0x3c09c1a53ce6a55eU, 0xbc93d7d3bcf35fa0U, 0xbd48a9cb3cef9c23U, 0x3c2a8dc9bc8bc8c3U,
  0x3ca35777bb2dc6a0U, 0xbd8303d2bcbb10e5U, 0x3ca3e5333cfe84adU, 0x3ca42a48bcb973d9U,
  0xbc0ea6543d2461d6U, 0xbbc02ce7bd97d9ebU, 0xbd1e7b3f3d09aa7aU, 0xbe125e15bd61f0d5U,
  0x3c91a2133d39db75U, 0x3cc0838d3d1b0b0fU, 0x3ccef3fb3c940d36U, 0xbc8de1213dbbc8dcU,
  0xbd2026e2bd71d8ecU, 0x3d20bc273d1b208aU, 0xbcdfe1d43d428f07U, 0x3b27f91bbd109b2dU,
  0xbc1adae23c99d2f5U, 0x3d00cfe63cff335dU, 0xbd5d6bcfbd8e5432U, 0xbce45c01bc68b810U,
  0xbd264e61bdb11040U, 0xbcc7a1723d109b4fU, 0x3d8473993d058d7bU, 0xbc5c62b23c84f5aaU,
  0xbdc01a443ce47c4aU, 0x3d826175bd025fecU, 0x3c7ad9683d768293U, 0x3d35e1f6bcb32dcdU,
  0xbc0166a73d32621cU, 0xbcb52f7a3d60f44bU, 0x3cefe8a73d246997U, 0x3cbff7873cebeb9bU,
  0xbc4c836abce75be4U, 0xbdd8f3033d2467f8U, 0xbd7f2b78bd6963ebU, 0x3cee541a3ca17e5dU,
  0xbbe73172bde8d8caU, 0xbd14231ebd2ebc71U, 0xbc2ec0efbce29afdU, 0x3c717881bd226874U,
  0xbd061f9bbd47660bU, 0xbc11e0c2bd360aeeU, 0xbd923451bb63e368U, 0x3c4349a43ce91e81U,
  0xbcbf2918bd8d1b4dU, 0xbd619f0bbbd83394U, 0x3d6b3e273d2d5fd8U, 0xbd8d222ebd368a4fU,
  0x3caa69843cf97bf9U, 0x3cde400f3d00ea19U, 0x3c25f1a0bd3b7ce1U, 0xbd2fbd1fbd539e86U,
  0xbc17363fbdc93a15U, 0xbbd369b8bd805c2aU, 0x3aeb1d3cbcfcf797U, 0x3c81ee9ebd56bf39U,
  0xbe02a5273d01f7abU, 0xbcb60a5d3d5a58beU, 0xbdf01e81bceab217U, 0x3c839d81bbe60821U,
  0xbd8057b83d3c688bU, 0x3cb663abbd3989c5U, 0xbc9f0bd9bce6aac5U, 0x3df2a8e33d1555b8U,
  0xbd7f94813c193965U, 0x3d4d336c3b8b62d7U, 0x3d00453abcc7575cU, 0x3ce8fb26bab3124bU,
  0xbdc86db9bd73c562U, 0x3cc5f832bd6ced41U, 0xbd9ba3943c4bbeecU, 0x3da61d29bc232d91U,
  0x3ab09bc33cc1ac4cU, 0x3cf5cfb23cb0a313U, 0x3cf0f6d23d36a20dU, 0xbc37c3aa3ace0da3U,
  0xbb421179bca87d19U, 0x3dab48383d45a236U, 0x3dc477ef3d3301a5U, 0xbbf419083c9a3fa7U,
  0xbdbb9a5b3d4d86bbU, 0x3db144233db5cfd1U, 0x3d8c31993d3c33deU, 0x3c86a3dd3d5791b5U,
  0xbd003f9c3cfa3b43U, 0xbc7511a2bc4d3073U, 0xbcb5f1a23d33c4aaU, 0x3d3de0bc3d038892U,
  0x3ca1aa66bd053d17U, 0x3b44a44d3d8a4badU, 0xbd6ac166bd0c182bU, 0x3c8bea3ebcc729cbU,
  0xbd0b0d9fbdc30d07U, 0xbd4f2ed3bd36fc5dU, 0xbc3d9015bd01760fU, 0xbcf711e8bcff2620U,
  0xbd5bdb89bd390274U, 0xbc06e094bc23677cU, 0xbdb4d3a7bb9ba381U, 0x3c01b835bccea9e6U,
  0xbd749392bda40f39U, 0xbd1a50093b8269b8U, 0x3d5966be3d223f01U, 0x3cfddb4fbdcc9ba3U,
  0x3d45bbe73d905eaeU, 0xbc0a2de6bcdc494fU, 0x3bf4005c3b971275U, 0xbd1c88b5bd70bcbeU,
  0xbd87ecd8bda72507U, 0xbc8ac967bd118de5U, 0x3d023ddfbc72cf39U, 0x3c6b58d43bad8172U,
  0xbe0fc8d03c266617U, 0x3a994a1b3d55677fU, 0xbde6309abcbf5c72U, 0xbc00c5fabbc96f80U,
  0xbdbdab3c3d4ce2aeU, 0x3d5634a4bd2bccb0U, 0x3c14dfedbc466813U, 0x3d35f4d83be174b8U,
  0x3c92ee113c502fe0U, 0x3dd1325cbc20cf9eU, 0x3d2454cfbc9f7a9fU, 0x3c950968bd1003e7U,
  0xbd09c4fcbce8475bU, 0x3d81d487bd809e86U, 0xbd11675c3c8eba45U, 0x3d9ce6a9bcea6173U,
  0xbc81d11b3d12cc18U, 0x3c5180ec3c7b654aU, 0x3db41b7f3d5e24deU, 0xbcba74b93cd3d0ffU,
  0xbc9f15b43d14ab27U, 0x3cf010513d11eea7U, 0x3cbe868f3cf53f15U, 0x3b0f61633c8555a7U,
  0xbd48af2d3d6197d3U, 0x3da6fed53d4be819U, 0x3e2bb8c83daf22ffU, 0x3d248aef3dbcb630U,
  0xbcf30cf03d542930U, 0xbdb306ffb95c5038U, 0xbd5350a83d1e980cU, 0x3d7817df3d1fcb78U,
  0x3d00a4dcbbd932edU, 0x3c6a67af3d816fb2U, 0xbd3eb758bcb4a510U, 0x3ce6133cbcfbae99U,
  0x3ca473d2bd66c309U, 0xbd704628bd614dbeU, 0xbc33e74ebc0845ceU, 0xbcfca8a7bd314a98U,
  0xbd1014f9bc6671d5U, 0xbd2ba28ebc86b67bU, 0xbd85d3f6bca8916cU, 0x3c5eaa903ac4c55eU,
  0xbdc2a73bbdb0a45eU, 0xbd33e2a7bc3d0fecU, 0x3cf737953d1c1880U, 0xba1e8ebebd9c539cU,
  0xbb3674353ce89dc7U, 0x3c3b0789bd1ee6baU, 0x3d5ba64b3d0c3113U, 0xbdb00821bcb5f75fU,
  0xba051618bdc0fd35U, 0xbd0d9cb9bd4717e2U, 0x3d13f784bd070613U, 0x3d32dffc3d4b1557U,
  0xbd9435e33c93f68aU, 0x3bf22a2e3d314a77U, 0xbdc170ebbcf876cdU, 0xbcc6607cbc8617d2U,
  0xbcccdaabba28fd27U, 0x3cd33b5a3b2bb94fU, 0x3c9b33c9bc900fe9U, 0x3dadf0643d6c80bfU,
  0xbd274eedbca30f41U, 0x3d763f3d3c7e56c7U, 0x3da131c4bc07a9cfU, 0x3d362bc0bce8a32cU,
  0x3d807c96bd87dc6eU, 0x3d879bb6bdc146deU, 0xbce72e9b3c0dd6d0U, 0x3d1c898fbbf0fa36U,
  0xbca5b07f3d671f51U, 0x3d012bdfb94d9b64U, 0x3bc340d23bcfaf88U, 0xbd1ebc50bb516ea5U,
  0xbd05ebd43d85788aU, 0x3d88c3aa3c3d4310U, 0xbc1162203cfb48d6U, 0xbcd0115f3d11451bU,
  0xbd6ba6193d84e59eU, 0x3cf25ec1bc0a6844U, 0x3e1381043d5dce28U, 0x3d90cc2f3e04d3c3U,
  0xbc1c1cb73d027933U, 0xbd91404c3d144fbeU, 0xbc25dd443cb8562dU, 0x3d691e213d3c3362U,
  0x3dbb0859bd5b4383U, 0xbb7a1f9d3d3122cfU, 0xbccfd50c3ca27a9eU, 0x3cfa599c3bc66a8dU,
  0x3c1caaebbda3d902U, 0xbc31599cbd173107U, 0xbce92e0e3ac3c89bU, 0x3d0077efbd394638U,
  0x3cc6416d3c145673U, 0xbd4e83393a2fec6fU, 0xbd833c24bc95d653U, 0x3cc49e3c3d25430dU,
  0xbda6c93fbd8697d6U, 0xbd43596c3aa18015U, 0xbd0696763d3b9895U, 0x3b3cd63dbd59377dU,
  0x3d51d9f23d004907U, 0x3d3a1099bd397e6cU, 0x3d9850903c6bbc58U, 0xbca6bbf8bc0f0ab3U,
  0xbcb5413bbdfaa0b3U, 0xbcc54bdfbd67ea88U, 0x3c8771d5bd6e5ab0U, 0x3cf262b53c69a083U,
  0xbd7f3e0b3c8b1e22U, 0xbbbbb1833d381abbU, 0xbd8e207fbd15632aU, 0xbc704be2bca35181U,
  0x3cb9dbe53d003e93U, 0x3d226bcc3b866c19U, 0x3ca75468bd38ac2fU, 0x3d2ac5e73d9d7bd9U,
  0xbd9bb2b3baa5fda0U, 0x3d034d07bb9bed42U, 0x3d2368a13c005bd9U, 0x3c196803bad17015U,
  0x3d125197bdbd3c48U, 0x3da31caabdbbb0d3U, 0xbc5c7bf03c107c88U, 0x3cb575b03cfdba40U,
  0xbcb524b03d456614U, 0x3d13ddd7bc84658aU, 0xb9676b853ca48f54U, 0xbd0dd126bd0b422bU,
  0xbd69d86b3d76229cU, 0x3cc1d5b23d27275fU, 0xbd98c5693d49d0afU, 0x3c013e673d3e27ebU,
  0xbd6f61013d381385U, 0xbdb6def4bc8cedcfU, 0x3dd579c53de03919U, 0x3d6d86da3dd456c8U,
  0xbcc7d8db3d476439U, 0x3d00db213c150ea3U, 0x3d0eaac93d1ed9ceU, 0x3d1a3f673d5373c0U,
  0x3d5cce0ebd4ca14bU, 0xbd64da753d3c8fb6U, 0xbca0dedd3c03dbe5U, 0x3b4b9d823bd6d7abU,
  0xbc4419c1bd11766cU, 0xbd71876dbd25ba59U, 0x3c9d3b94b9e59de2U, 0x3d4a0128bd0d2af5U,
  0xbd06c3633bbc3126U, 0xbd85f8ccbcb4ee4aU, 0xbd943b87bca9761eU, 0x3d0c91eb3bb2fdbcU,
  0xbd24e24abd965f6aU, 0xbd5f9160bbf4a650U, 0xbd0ce6f43d2830f0U, 0x3c4cdd0cbbff1465U,
  0x3c991afe3c5b1447U, 0x3d3860fcbd391b7bU, 0x3d8f9f413b765961U, 0xbcea608739ee859cU,
  0xbc491520bd7e8c62U, 0xbced011cbd31b076U, 0x3c3d7441bd7feea2U, 0x3b94c9ff3b3b5388U,
  0xbd1bbbcf3c445ec8U, 0xbcc52b5f3c2f9fb2U, 0xbd045b59bcb98b7fU, 0xbb8f7a99bc859f11U,
  0x3cca520f3cb19f0aU, 0x3be0b4133c94b056U, 0x3d53ed823c1b9c5bU, 0xbc3f2dcf3c8c3d53U,
  0xbe060100bc1f1c04U, 0x3d15c9733c44ece6U, 0x3d3f5bfb3d2e1eebU, 0xbca8e149bcb665a5U,
  0xbd58bde3bdb0d870U, 0x3d6eeaccbbfe7434U, 0x3cecead63ccd681dU, 0x3c33ebbd3cbff002U,
  0xbca988993d6b52e8U, 0x3d02bb73bc035c0aU, 0xb9ba3fa13ce7c915U, 0xbd7e42303ac1155dU,
  0xbda1a2103d18cdadU, 0xbc7239833d71d3eaU, 0xbd777ba73ccc3508U, 0x3d89bb1f3c827394U,
  0xbd9571733d325005U, 0xbdcec62fb9b07713U, 0x3d80e0e23d823251U, 0x3d5a42963ccf84e6U,
  0xbca20b1f3d0f74fdU, 0xbb583fb73cfae2e2U, 0x3d12e7f73d23865cU, 0x3d15f07a3d5a0da5U,
  0x3d4009433aff2bb5U, 0xbc9d00dd3d11a5a5U, 0x3c58d8c93cb829feU, 0x3c3245fd3cbcc30aU,
  0xbb63a0acbcc382caU, 0xbce44cd9bd286f6dU, 0x3cebc1653c83dd00U, 0x3b5f7218bcac772eU,
  0x3c6264103c09baa7U, 0xbd83a37fbb6842fbU, 0xbd546b5cbcb6442cU, 0x3cab3f6d3cc094e8U,
  0xbd59ec8bbdb298a7U, 0xbd6bcec4bc84caaaU, 0xbc87920f3bdf0857U, 0xbd3fe7623c5d51deU,
  0x3d5147d63bef3741U, 0x3ca8c551bb999a36U, 0xbc532b69bd3226b2U, 0xbc14d0d03c22afe3U,
  0xbca206f5bd37d35cU, 0xbd51f1d8bd73f5a4U, 0xbd1611edbd97fec4U, 0x3ca6b3e6bcc7efd7U,
  0xbc3fb41f3c6e7cc1U, 0xbd24a5e53d4afc8bU, 0x3c42ec14bcb078f8U, 0xbbcebde5bccd53b6U,
  0x3c06145c3c94f6bfU, 0x3d61e4103cdbd641U, 0x3cd877583cb9df7eU, 0x3b1be3f1bc5e1783U,
  0xbdf165ac3d1e328eU, 0x3d1ecd79bc3f2894U, 0xbd8e56373caaa9fcU, 0xbd00276cbb33bd95U,
  0xbcb5b3c8bd0d46a1U, 0x3d6e312eba855262U, 0x3c167d603d13ba81U, 0x3bec61c2bcc42642U,
  0xbc5d33063d31311cU, 0x3cef72df3cb3ab19U, 0x3ae734f03c1dc7aaU, 0xbd10df3dba9d3035U,
  0xbd9087ba3d1c36f9U, 0x3d34bbcb3d2ba3c4U, 0xbdfb1b413b2e7fc9U, 0x3d3868073d31fb72U,
  0xbd922bfb3bf58713U, 0x3c292302bb92e3a2U, 0x3dc0500b3a7f6f06U, 0x3d31b076bd2ee18eU,
  0x3c8d468d3d63015aU, 0xbc7105c7bc3501a5U, 0xbc79086f3d0ee878U, 0x3d2d37ed3d1b33f7U,
  0x3d21f8f5bcd722b5U, 0x3aa1b2823d62200fU, 0x3c1333cdbc1cc37aU, 0x3c7a05ebbc1db0fbU,
  0xbdfb6e69bcfa5356U, 0xbd15ba47bc75ccb1U, 0x3d2608a6ba84e066U, 0xbd8d20aebc07e762U,
  0xbcc07d933ce326bbU, 0xbd9b5d60bcc89127U, 0xbd183f18bcd86924U, 0x3c96b4c5b960f59cU,
  0xbd030666bdc08f62U, 0xbd6b58dd3ad41b94U, 0xbaaaae9539a2a0b6U, 0xbd3d0441bacc7a02U,
  0x3d508a983cf1b7eeU, 0xbc60ee4bbc500b27U, 0xbd2ab91abd3aa6a5U, 0xbc3e7e463b1de4d6U,
  0xbd908f7ebcf18dc7U, 0xbcf45651bcd2ccc4U, 0xbd5517abbd6d1d87U, 0x3cbdf4933c49153fU,
  0x3d59a4ff3bf772c3U, 0xbcd09d023c654c53U, 0x3cb97f933c70be77U, 0xbb8caddcbbdd3f0aU,
  0xbd18bf5fbc87f73aU, 0xbcc281b2bcb8ee75U, 0x3d0bb2fb3c21bda7U, 0xbd5717ca3ab4ce5aU,
  0xbb8950a03d8f30c8U, 0x3cc682de3a5eabfbU, 0xbd689ec13c6f843fU, 0x3d075c41bc72b36fU,
  0xbd98c129bc715f66U, 0x3d65364b3d25e247U, 0x3cd9852f3d32427bU, 0x3c0630e1bc018772U,
  0xbc3a088a3d4f81fcU, 0x3cecb12c3cbaecaeU, 0xbb8cb5b23d5c9eccU, 0xbd4a9b60bc8ac8c3U,
  0xbd8b3c123d1fdfbcU, 0xbc9890183d8cbf57U, 0xbb925c8439a08ffdU, 0x3c9ddddd3ce91dcbU,
  0x3cf903273d31bdb9U, 0xbccc05403bf3d558U, 0x3d8bfdd8bc8bfa57U, 0x3d69ffc9bcc99caeU,
  0x3cd998143d08da20U, 0x3c9faa5b3a803805U, 0xbd8602a53d163f05U, 0x3d2f36353d1d7b55U,
  0xbd3e646bbb8f06bfU, 0x3d4fc00c3ae38f27U, 0x3cbaa6743be5468aU, 0x3c48a0a1bbeffc3fU,
  0xbd3a7a293c31c076U, 0xbd17347f3a105fd4U, 0x3d77f8d23d114fd2U, 0xbd8128f6bcd2d37aU,
  0xbddb64f33c9e2856U, 0xbd923c553c13c23cU, 0xbd262b0bbd1f5ddbU, 0x3c44a4eabcc196eeU,
  0x3bec5686bdbe9c8bU, 0xbd4aaa273c0ce337U, 0x3d1724f83b9e9827U, 0xbcb3768e3cd07e7bU,
  0x3d34099d3d0954fbU, 0xbc8ed5bdbd62ec7eU, 0xbd11c760bd233da3U, 0x3c09f3f6bc3452d1U,
  0xbbf88dc63c83a5feU, 0xbd51038cbcc1d425U, 0xbd169341bd1c2524U, 0x3d45fb7e3d5f688bU,
  0x3cd5c4153b2fd438U, 0xbd87f8c03b030850U, 0xbcf30b633ce68e58U, 0x3ab0b7cfbcfa94edU,
  0xbd8065b0bc95b34eU, 0xbb0f3948bcffc08eU, 0x3d0705c23c459f49U, 0xbdf22240bd40feb1U,
  0x3d5737803d400104U, 0x3ca2967e3c3a438eU, 0xbce7b38b3c150625U, 0xbc6ed27c3c379ff3U,
  0xbc512225bc4f7abaU, 0x3d80d1c23bcaa974U, 0x3cb69b4c3d4e680aU, 0xbd8a478d3cd0c835U,
  0x3c6ab3d33d682cb2U, 0x3c04c37b3d4aaf5fU, 0x3d56904b3cdf8a61U, 0xbdc2ab773bace3f5U,
  0xbdedb6283d3daac5U, 0xbd8155813d49eaefU, 0x3d2b9b0dbc693071U, 0xbdee26a83ceb8decU,
  0xbcaabf6b3d4565c6U, 0xbd98ade43d96a20dU, 0x3c25a52fbd59f0e0U, 0x3d2daf89bc85086fU,
  0x3d709de13d3565e1U, 0x3dc8d9f7bba7b995U, 0xbd8046173d70c78cU, 0x3d1483963cade7fdU,
  0x3d0ca768bd2a0c4bU, 0x3d77021cbd7f72e5U, 0x3d3e35ce3d02c7d6U, 0x3c73c37ebca97f60U,
  0x3cfd7f913ae1d275U, 0xba03ffc4bb928590U, 0xbd0b23b8bb884dcfU, 0xbd66a25cbb1294d1U,
  0xbdfe59de3cbbe23fU, 0xbd8f0ac938013798U, 0xbd8923e7bcb24b17U, 0x3d1e6de8bd460713U,
  0xbccd5722bd800901U, 0xbd368236bc979adfU, 0xbb617f6ebc6e97ffU, 0x3bf385d83b08ed0cU,
  0x3cc1875e3cab188dU, 0xbc89bde6bca81da9U, 0x3d86c4a53c62275bU, 0x3cd515be3bbfc37dU,
  0xbc23dceb3c28af02U, 0xbcf5ed6bbc0ebc5eU, 0x3d022613bcb69894U, 0x3d049dcf3d3741d1U,
  0x3d4172da3bb08a9fU, 0xbd90eff4bcb29cdeU, 0xbcd1d7393cd3dddeU, 0x3ca52b60bcbeb8d7U,
  0xbde58b8ebcd4f12dU, 0x3c99764cbcc8636bU, 0xbc309d10bcd77d68U, 0xbdb81a28bd8da545U,
  0x3db2ee583d1c8196U, 0xbcee62d43d298993U, 0xbde8f86c3cea6041U, 0xbdd0e340bc9ce508U,
  0x3c24c9ccbd7639f7U, 0x3db336423b0a1c8eU, 0xbd01f3ab3d696100U, 0xbdc21cb23cc5a8a1U,
  0x3c00fdff3d8735c4U, 0x3d2e4f1f3da0757eU, 0x3cf617b33d2c94edU, 0xbda5b0043d22a29dU,
  0xbd88d9a73d515048U, 0xbd9407613d1b3d96U, 0x3c8dd10b3bde1265U, 0xbdd64d6abaa94218U,
  0xbd4a6e923d8b01f3U, 0xbca9f3f23da81666U, 0x3d3b3149bdb59729U, 0x3cf632c83c5e47f8U,
  0xbb60d74c3d3b9453U, 0x3d602a55bc9ff1f4U, 0x3aea9fe63cc5fb1eU, 0x3d1b690d3cb7a889U,
  0x3ce05beabcc0e6d5U, 0x39b8cfe0bda4f362U, 0x3d32596f3d69da70U, 0xbc25ef56bc8435eaU,
  0x3c92e7c33cadefd2U, 0xbcb972723c3035e9U, 0xbcb0e2013c686484U, 0xbcdb4fbdba5bc554U,
  0xbd8e49c83cedcb37U, 0xbd5d25443ccff247U, 0x3c726f25bc088302U, 0xbbaf6caabda0d2ffU,
  0xbd0ccb16bd486822U, 0xbd1b7283b9be502eU, 0xbd648c18bc0d5985U, 0xbd1242da3d02d294U,
  0x3a9df2fc3c9a0e4cU, 0xbb8531d2bd2913f9U, 0x3d3b093e3c76170cU, 0xbc5e90a3bc31ea0dU,
  0x3cbf5997bc88ab9bU, 0x3cd624e13bf58345U, 0xbc418b4bbd26c608U, 0x3ce20c723d407c0fU,
  0xbc9af63e3cf7fae5U, 0xbcea1734bda2b0d9U, 0xbbeb3d1c3d640556U, 0x3c683cf0bb3c6405U,
  0xbd1fbe9abd0b11f5U, 0x3dae7c193c1d7351U, 0x3c7f22eabdac59b7U, 0xbceb14adbd9b738bU,
  0x3ce10622bb0989f5U, 0xbcce42d93cdae8beU, 0xbd774d9dbc3da54cU, 0xbd9766d5bc76d0b5U,
  0x3cec15bdbd47b072U, 0x3ddec1aebab6099aU, 0x3c0affff3d1049faU, 0xbd67fd213ac9e15bU,
  0x3d083fd13d773ad7U, 0x3d34cddd3d502a46U, 0x3c0b88173ccdd5ceU, 0xbd2b67cb3d3dc4faU,
  0xbd53fda33d604b47U, 0xbd6919f7ba4d4224U, 0xbdac47e1baeb8837U, 0xbdf3b12d3cb42c70U,
  0xbd6a53143cc25063U, 0xbc1d952d3ca11ba5U, 0x3d52d8c8bce21f23U, 0x3d575e403da6ce84U,
  0x3c1792a73cf4d892U, 0xbdd412503ca6de59U, 0xbc2ee23b3d45d42fU, 0x3cfe61163cdb5485U,
  0xbcefab16bad4eb72U, 0xbdaf603ebda4c184U, 0xbd93a9c8bc9c3221U, 0xbcdc4bd1bd8876f0U,
  0x3cef9484bc2523cfU, 0x3c43d5703cbf198cU, 0x3da855d63c870995U, 0x3d0e26be3d617e04U,
  0xbdc344d0bde9faf6U, 0xbd03e245bd0d4913U, 0x3c1c4aeb3c4aea05U, 0xbd14e23dbd980e43U,
  0xbc67fcb7bc0c1a44U, 0xbbaa81f7bca122d0U, 0x3c3877afbd2a9266U, 0x3d3f3f9fbd15fb0aU,
  0x3cd7a267bba8d459U, 0x3d8d57073d103330U, 0x3d51bb913d31f33eU, 0xbcca32d7bc8c0ae2U,
  0x3cb5794c3d6df8a0U, 0x3cc62c21bd907272U, 0xbd92f48e3dde7841U, 0x3c0deabfbac32b32U,
  0x3d0391083b1a3593U, 0xbbe608223d1801f2U, 0x3d50d0c9bc3ddfc9U, 0x3ca4be963d06f205U,
  0xbc90d502bc5198b8U, 0xbdcc26e33d1b6399U, 0xbca360743c84d9c4U, 0xbd9898f43d1bb0dcU,
  0x3dfd43febc23bc0aU, 0x3c1dcf773db1f9a7U, 0x3d6d5ffc3a91b6f2U, 0x3aec778f3b857a5eU,
  0x3c5cd12cbc2156c6U, 0xbca11404bcf2c769U, 0x3cbe072abc616fccU, 0xbd784031bd16d707U,
  0xbdea9e033c5c10abU, 0x3c94c786bd1aec08U, 0x3bd6fe54bcc9bd2dU, 0x3c500720bbdaf420U,
  0xbd25f21b3da08c2dU, 0xbd0f74bebcc9627eU, 0x3b113d14bd1572deU, 0xbc5442b7bc91f66eU,
  0x3d9b94fd3d0862c3U, 0xbc3d0a973d5f0200U, 0xbd13a659bc4bbc9cU, 0xb9c06f553cd74668U,
  0xbdb8ae3f3c2a1435U, 0xbcc43a873cc87d44U, 0xbbaf3cc5bd098cecU, 0xbca351d9bbf9c3ddU,
  0x3b4e5b11bd268039U, 0x3b047de13df96e97U, 0xbd9d69a63baa2de4U, 0xbd1f1fe4bce9f84dU,
  0xbd055631bc6aac81U, 0x3d52a5103b8ea4b2U, 0x3d1f5c203c5f5a39U, 0xbca8a71a3d1df1fdU,
  0xbd1c22a6bd8b2a97U, 0xbc73c5acbd88f995U, 0x3c92fac33ccb7c9dU, 0xbd54fd0fbdafb7bdU,
  0xbb72fe90bc02cc38U, 0x3cbf1899bbd6ab5aU, 0xbd43ada6bd34f6dbU, 0x3d02990abd0dc7a5U,
  0x3ce271833b582867U, 0x3db935b73d2b46c9U, 0xbd9e5e013db5bed3U, 0xbd195dc33d1a94d3U,
  0x3da35d0c3d85174fU, 0xbb0c23973d65e5afU, 0xbc75aed03daf111dU, 0x3c85af363ca79e68U,
  0x3d325f173aca9f78U, 0x3c811f833d809e09U, 0x3bb9a0af3c168023U, 0x3c49e5ecbc124000U,
  0xbd03b0173d082780U, 0xbd9677903d2abc21U, 0xbc74e2d23c953249U, 0xbcb85c813d166d63U,
  0xbcd66ab1bacf410dU, 0x3d39988b3d723db5U, 0x3cd73779bcece245U, 0x3c2285783cfacd66U,
  0x3b0d4a8abd4527d2U, 0xbc7b705dbd32ff08U, 0xbd1e255bbbbc5bdeU, 0xbd46b1bbbd3b8646U,
  0xbd738e02bb215905U, 0x3bca37dfbc22c80fU, 0xbc8198a8bcd1e833U, 0xbd125e153c99695eU,
  0xb8b2569f3d0e8fa4U, 0xbaeb6dcbbd0e2ac1U, 0x3cfd5604bc9e0c61U, 0xb9cc2663bc611fa7U,
  0x3deb81a43d574a94U, 0x3d458bc63c8b15e7U, 0xbb55f8113d2de2deU, 0x3b34a9a43cf24b55U,
  0xbd4a4fe3bbb6162eU, 0xbdc186163d305b4aU, 0x3c9512d5bcc70798U, 0xbcba44d3bc72186dU,
  0xbc6d243cbd364e84U, 0x3bae11db3daed593U, 0xbccebafb3d34c2dbU, 0xbd1207e3bc261c80U,
  0xbc8d99a0bbf165acU, 0x3c81e12fbbda6f36U, 0xbd39ab563cf2fc6dU, 0x3d0121343d5332a0U,
  0xbb33ea8abca7e83aU, 0xbc1dd758bd18b297U, 0xbd0ecbaf3cbcafdbU, 0xbd5ec011bd75229fU,
  0xbbe9f3afbcda2206U, 0x3bc4fbb2bc00055bU, 0x3a86b5cfbd43d7ebU, 0x3d35228dbcc42639U,
  0x3b1c88433bba0e9cU, 0x3d6cb34fbb2fc872U, 0xbda768123d87db7cU, 0x3c36985e3d07d641U,
  0x3d7e2e6f3d9ccc21U, 0xbd1f045c3cc969ecU, 0xbd72e4053d5bfd80U, 0xbbc074a0bd7ba423U,
  0xbc827ff73beac326U, 0x3d2b32b43c3df86dU, 0x3a28a6643a143f33U, 0x3cb897acbcb58374U,
  0xbbc577f73ce77b05U, 0x3d5e26353d062298U, 0xbd2dca0c3aee4d9fU, 0xbda70cc03c10266dU,
  0x3d01eb623c60d8caU, 0x3cf2dbc33d6441b5U, 0xbd6aa73cbc9fd7b8U, 0x3c4754233d6ff039U,
  0xbd2cc7b63b1c57f5U, 0xbcc37905bccfaf0aU, 0xbc6014e73c1721aaU, 0xbd4b6876bcd34591U,
  0x3d0de7d1bb0b04b6U, 0x3ce57742bc7962a9U, 0x3d017925bd0b6f97U, 0xbd178c24bcc9927eU,
  0xbba0bab33d09442dU, 0xbcaef499bd798e61U, 0xbd197e4fbd091679U, 0x3c3baa39bb93f5dbU,
  0xbca024293b9e83e3U, 0x3d7f8a863cf8e5c6U, 0x3cae48f13834720aU, 0xbbc715573c9d7ccdU,
  0xbc974347bc1e16a6U, 0xbde226e6bafb1b1bU, 0x3b28f3c83b425c0cU, 0xbc62c2da3d09a2dfU,
  0xbc3fc7acbd970160U, 0xbd14d4623d6b2312U, 0xbd37cbc83c91b3f5U, 0xbcbf10fdbbbb25fdU,
  0x3d9f38323c331f55U, 0x3d41960c3bc2c5fcU, 0x3c1af29b3c007d90U, 0xbd1051263c2c05c3U,
  0x3d544bff3a4b85e9U, 0xbc21f39bbc442fcfU, 0xbb11efc63ca3c111U, 0xbccb38fabcb1afcdU,
  0xbc987f16bc80a226U, 0x3bcf400bbc37733cU, 0xbbed073cbd7bc9fbU, 0xbb9ac1cabd5eb5d3U,
  0xbacfb9433ba4cdb0U, 0x3c97381c3baec0bdU, 0xbd76c9bb3d9a262fU, 0x3c6b4ccb3d379739U,
  0xbc5162353d5697f9U, 0xbd1deebdbca57d80U, 0xbd512ded3ca434a1U, 0x3ab861c53d024908U,
  0xbd35ab7aba14aea8U, 0x3d215d8fbcc80ba4U, 0xbb2b29483c90a84fU, 0x3caec412bc32fa91U,
  0x3d6542ae3a81cf3bU, 0x3c4432ce3d8360ddU, 0xbd0ee83a3d32cd44U, 0xbceaa5093cd9370eU,
  0xbdb6592c3cd21040U, 0x3dbd78733d3998b4U, 0x3c3073d53b217f63U, 0x3d6df7ba3bf84a01U,
  0xbc98d006bda3efd9U, 0xbcade5993cbdd488U, 0xbccfcbcd3c19a9adU, 0xbd6df9a7bc686271U,
  0xbc510b45bc3d5c8fU, 0x3c35fe59bc5d9f8aU, 0x3d87c246bc9f7fa8U, 0xb9461ef43d41c4f8U,
  0xbcdd488fbd6904c3U, 0x3d527a75bc8154a6U, 0xbd3ff038bd49419aU, 0xbcc65388bba6a48eU,
  0x3c050ed6bd1635a5U, 0x3d8cde993ca10ec6U, 0xbd1804e9bda10fa4U, 0x3d04d304bcf580a6U,
  0x3c087ca8bcddc6c8U, 0xbd8f199c3b60d3c8U, 0xbd639f9cbbca3d9cU, 0x3be83892bc9be419U,
  0xbd020cc6bd0475ecU, 0x3d81dc6c3c9a68c6U, 0xbd213b0c3b8b6887U, 0x3b7d69b038efd5f8U,
  0x3d408a96bc058545U, 0x3a28cd083c4a1b77U, 0x3cf75cd7bc1ea86dU, 0xbcd4351e3c7d1ff7U,
  0xbd93b1423cf61d82U, 0xbc6f899cbbf1a23cU, 0xbcd994343b3a85acU, 0xbd5dfa91bbfea93dU,
  0x3badf028bc40989fU, 0xbb58df133ba1ea85U, 0xbd8fca2abe0261e6U, 0x3d5a30e1bd7e9472U,
  0xbd4b439abb5a2e1dU, 0x3caec74dbcd3f522U, 0x3d3aeee53d3426e8U, 0xbd213b3f3d682dc0U,
  0xbc4b95583c5f5908U, 0xbc28d96dbd787fa9U, 0xbd242fa33c871d10U, 0x3ba310bb3d6adf13U,
  0xbbfc81603c78d465U, 0x3d86b5f9bc4ef498U, 0xbc46789d3c49037eU, 0x3c84bec3bd2ee80bU,
  0x3ce77bc63c9c58b1U, 0x3c13b0043d663a43U, 0xbda577b33bcd640aU, 0xbd541b7abd2321eeU,
  0x3d0ecae43cbc0d5cU, 0x3d38cfe63d105aa6U, 0xbcda6fd8bcd4cfb1U, 0x3d0634d8bdae27acU,
  0x3c64dc8abd1c0b0aU, 0xbcf1a30f3cf954b4U, 0x3caf9d7dbc43feaeU, 0x3c4953443d1175bcU,
  0xbd0e75bbbd36e640U, 0x3c049f59bb62a6a1U, 0xbca7a6763c803489U, 0xbd651ca3bbee4ddbU,
  0xbc2f0f883d3cb853U, 0xbcb7a697bc8d9805U, 0xbd3a33edbd95d3d6U, 0xbd01fdb8bc8704fcU,
  0x3d72f6c3bb4b3129U, 0x3cf1d6293a988fb6U, 0x3d1aba90bd4e3df6U, 0x3cf1a6e8bd8f04b3U,
  0x3c459fa4bc54a3e6U, 0x3c50279fbd04e57eU, 0xbd49b5a3bb819215U, 0xbc1506bcbcfdcd70U,
  0xbd564580b94c094cU, 0x3d273827bc1a754eU, 0xbd690ec93c5e8cb9U, 0xbd003addbc3afc97U,
  0xbceb49263c1aac3eU, 0x3b7664f2bb031c59U, 0x3d78cd0bbbc24e03U, 0xbd496acfbaa5bf23U,
  0xbcf077723bc4e695U, 0xbc27e660bdc5d277U, 0xb9c504333c92fb33U, 0xbd970ac8bbb58ca5U,
  0x3cc5e6c8bc86d7d0U, 0x3b651effbbea1777U, 0xbd89a5e5bda09881U, 0x3d3516f6bcf603a3U,
  0xbd1871ec3c0c9318U, 0x3cab6138bd0ddf0eU, 0x3c2f801a3c8422a9U, 0xbcb587e73c7b2143U,
  0x3ccd2b803c81f59bU, 0x3ca0ebafbd647564U, 0x3d8237773d5fc5ddU, 0xbb1942edba59effeU,
  0xbd3db34a3c2ee2ccU, 0x3d0e84583d3c45c2U, 0xbc8d56e13d545dfaU, 0x3d0a700abc445cc8U,
  0x3c6cecad3cebc686U, 0xbd476f0d3db11398U, 0xbdc8db39bb62ce2aU, 0xbd9b25d1bcde418eU,
  0x3d761f90bc584a46U, 0xbd8db1613d4fe973U, 0xbcd4d23abcf087e8U, 0xbcc4ca72bdd59361U,
  0xbad9e747bd03621aU, 0xbc945a843b6e6668U, 0xbc5d37d5bb931ffdU, 0xbdc3bc32bbfd8dc9U,
  0xbd435614bcda53f7U, 0xbc073c503cc77187U, 0x3dcde17abce5ba1fU, 0xbca1a321bd268d24U,
  0x3c449a34bc82843fU, 0xbd6a9ac9bccc3de3U, 0x3d48bac1bcc09400U, 0xbd4fb7183b60748eU,
  0x3d434ecb3d3fea1fU, 0x3da0ce5f3d102c2bU, 0xbd1209a2bc8bafa9U, 0x3c9bbea4bcb2f5f6U,
  0xbc623a3ebc8fcc3dU, 0xba0c1e32bd56ff67U, 0x3c945d6dbbe59c06U, 0x3c457420bc2f7568U,
  0x3d82c8e9bd390c13U, 0x3d1b50d8bce02bfdU, 0xbb42a6da3c79367dU, 0xbcadd9b5bcaba561U,
  0xbd2bd1a1bc310a88U, 0x3a1ad6b83ba75eb2U, 0xbc1184b3bca420d5U, 0xbc2011df3d9b7650U,
  0x3c089f35bc597c23U, 0xbbf76f2ebc9ef218U, 0x3b521a1abbf73c9aU, 0xbda9c6c4bcdfd5caU,
  0xbcaa6c6bbc9235bcU, 0xbb7e424b3c62ecf6U, 0x3b8b1403bd83d6c7U, 0xbac7892e3bf6e72eU,
  0xbd8a7e223cce977bU, 0x3d1090fc3cf0719aU, 0x3c8f0c6abc97a395U, 0xbb74209a3cc7d6baU,
  0xbd147709bb008cf5U, 0x3d9f8615bd41a3c3U, 0x3db67bcf3d19eeb4U, 0x3c791321bda1ab69U,
  0x3d187be23a7b5a87U, 0x3d7a933f3d041093U, 0xbd2fc2773cbe0b5eU, 0x3cf23d5dbcb72560U,
  0x3aed57a63d7b217aU, 0x3c869a703d3fc7adU, 0xbdf75869bbc1bd4cU, 0x3c98025a3bc1a198U,
  0x3d6fd430bd003ef1U, 0xbbf101603d562563U, 0x3d95f6c9bb8a3762U, 0xbd8260e1bd1d2358U,
  0x3b4b7d02bd896fd2U, 0xbd35c64fbd860659U, 0x3daee333bb84536cU, 0x3c0edc533cc84c0cU,
  0xbdbae1eabd092c47U, 0xbd04a9ac3cfda227U, 0xbc7ee47fbc60bdb3U, 0x3d6d828ebd2ea3feU,
  0xbd183f0abcc4b20dU, 0xbc3809d7bd2780d4U, 0xbd26a166bd0a9d42U, 0xbd195b2cbbfdc4aaU,
  0x3d809d273c6ee9d2U, 0xbd515c95bd82fb58U, 0x3ca2b124bd929274U, 0x3cf3f6a1bd41d1fcU,
  0x3daa3642bcc32da2U, 0xbd8a4304bc88df28U, 0xbc7925d1bcc4bc54U, 0xbc542157bc758803U,
  0x3d9086babda5b680U, 0xbc9d0cafbc66074cU, 0xbc427fa83d1e28a4U, 0xbcd1d0b8bd1a8760U,
  0xbc8fade33c7c98f5U, 0x3d8a8e633963aff9U, 0x3dd76e013cbc2366U, 0x3b996dad3c813173U,
  0x3cd1ca3abd8bc3feU, 0xbb1a06e9bb672b1fU, 0x3cf714233a9e8762U, 0xbdbe25cebcadad0dU,
  0xbcea802cbcb91c04U, 0x3c1bdcfbbc03848bU, 0x3c3893173be8e458U, 0x3bc0b955bd11c7ddU,
  0xbd91b0a23c5b0503U, 0xbcaef7003d433b25U, 0xbd6a860cbbbca7aeU, 0xbc84b8e03d472f56U,
  0x3a7ba7f43cc2129bU, 0x3d2c426ebcbb871aU, 0x3d8bc88a3dbdb494U, 0x3ce4313ebd34b6afU,
  0x3c629a833be78867U, 0x3db16ead3c010994U, 0x3c14dfad3d4c4f72U, 0x3d1b2fd6bb852417U,
  0xbc45e0e93d9d44c7U, 0x3d24ec6e3dc23bdcU, 0xbdcd34d13cb02566U, 0x3cd7cdf1bd3c66feU,
  0xbd275437bc9e6e0cU, 0x3cb911333d31b5dfU, 0x3c43d78ebd702de8U, 0xbd6d915fbdb80f7cU,
  0x3be50b98bd194136U, 0xbd098794bd5184d9U, 0x3a31c2563c10df88U, 0xbaf0eec33d4d5debU,
  0xbd99b79f3b83d298U, 0xbd0835cf3c65360cU, 0xbcddf62a3d46f4a4U, 0x3cdc15083cf680f4U,
  0xbd09f051bd8d46fbU, 0xbdbc6da1bbed8402U, 0x3cafde58bcef62f2U, 0xbdd70dbabbe2df78U,
  0x3c79187f3c9751e0U, 0xbdbb6244bc9ede7eU, 0x3cb3cbaebd68246dU, 0x3c0d3ecabd1980caU,
  0x3c98d730bcc1610eU, 0xbd0c15e1bccad34aU, 0x3d01e6fbbc0e64d8U, 0xbc05ef3e3c2052ceU,
  0x3c3345b2bd2903d2U, 0x3cf710103d0451e1U, 0xbd5bb4c93c94d2ddU, 0xbcf47449bce319deU,
  0xbb8661693c075daaU, 0x3cdbaa4fbaaae417U, 0x3d89b13f3cd24d6fU, 0x3b54f0633bb87588U,
  0x3c7241ccbd20f128U, 0xbcb9d26c3cabb22cU, 0x3cecb9a63c2e10d1U, 0xbddccfcabc35afd6U,
  0xbd7788bdbc910a8fU, 0x3b3e620abb46e9bdU, 0x3c3c9a61bb139959U, 0x3c755dd6bd5b61a7U,
  0xbc81d0f23ced932fU, 0x3c664bcd3cfdd7b6U, 0xbb6aa1edbd02982dU, 0xbc59b1b03d5463fdU,
  0xbcd907073c640439U, 0xbcd77e283d7365d4U, 0xbc0b95263d1369e4U, 0x3d6b0abdbcb38403U,
  0xbd1ad49d3cf5bbfdU, 0x3d66ca3cbc442895U, 0xbc4a8afc3cdcf0f3U, 0x3d14e03bbc9e5f1cU,
  0x3c5fc7df3d613529U, 0x3cea626b3bcbdb78U, 0xbdcce75f3cb589d0U, 0xbd1dcc84be220f9fU,
  0x3d5db013bc57d3c0U, 0x3d9874d23cf273a7U, 0xbc6798febd378022U, 0xbbec950fbd06e78fU,
  0x3c63c38c3cd69228U, 0x3d04cbf5bdac3600U, 0xbd90cd7a3c865b31U, 0xbc05bf563cc3fe86U,
  0xbd7ba6743c121f1dU, 0xbc9464b33c1a312bU, 0xbd9a22e2bb2d6cadU, 0xbc9a1d073d8ab8ddU,
  0xbd4c483b3d7caf6cU, 0xbca13f6ebd715347U, 0x3c619c77bd6c2e0dU, 0xbd8b9c843cbf320cU,
  0xbd2711813c26e189U, 0xbc414a8abcf2ee4eU, 0x3d6bc3623c093abeU, 0x3c38769b3cdc3a18U,
  0x3c726da9bca82988U, 0x3d218738bdbd59c2U, 0xbb85c8cbbcba1df9U, 0xbb1939cb3a9f7407U,
  0x3cfb301ebc275bffU, 0xbbc956ba3d1fff86U, 0xbcc2e6b9bc066651U, 0xbda06780bd82140eU,
  0xbb395d2a3cd6c074U, 0x3dc1340abc9fa074U, 0xbc32e2f3bc01941bU, 0xbce204f8bc948ed6U,
  0xbcbf5a09bd20c23fU, 0xbcf3c0dbbd3724c3U, 0x3c26740fbb4071a1U, 0xbdaaafcc3cba055eU,
  0x3c7f5956bc5d974dU, 0x3bc20536ba8a5a71U, 0xbda1d338bc85a877U, 0xbc665743bd43c1eaU,
  0xbd0fdedd3d0ea3cbU, 0x3d5cd5cf3d9529c1U, 0x3c15997a3c18eb8dU, 0xbd8e97da3d0b4355U,
  0xbd08b92c3d304524U, 0x3ce926b63d92192eU, 0x3d99c1eb3d02e798U, 0x3d6087fb3cd3b57cU,
  0x3c15c8543d0507d5U, 0x3d4ecad0bd50ccc9U, 0xbc39da2e3c896cfaU, 0x3d44165fbc82c016U,
  0x3d892190bc9337ddU, 0xbdb12236bcc65a8eU, 0xbd323682bd21356aU, 0x3ca40d36bd9eb9bdU,
  0x3d13b1e5bc85d10bU, 0xbdec5e973d53fae5U, 0xbd690304bd264f78U, 0x3c15b9d4bd883447U,
  0xbd8f13523c100b70U, 0x3b339041bc487e5eU, 0xbd07878cbbd980efU, 0x3cf274783c1a468dU,
  0xbcb274f6bbcb1537U, 0xbc9b998ebce05e1eU, 0x3d2ac7f8bd56c7cfU, 0x3ca5bc943c14e305U,
  0xbc90fbf73d55c4c7U, 0x3d071419bbcd97afU, 0x3c88a034bd19bb94U, 0x3bbac3f03d171659U,
  0xbcf0f53c3ce0e904U, 0x3d82f513bd7dcadeU, 0xbc5238c63ccdbdcdU, 0x3d11b04c3bf42e0bU,
  0x3d12b2abbbeee086U, 0x3db2a1823d41eb72U, 0x3dccac77bbcf76c8U, 0x3ae146da3c7f9cc1U,
  0xbd135a65bcd561f6U, 0x3d352da5bd06d987U, 0xbd1edcadbced23f7U, 0xbd40c647bc6e48e8U,
  0x3c9307743c6485acU, 0xbced20f23c999db6U, 0x3a9182a73ba7d174U, 0xbd3a29c23d2f6e01U,
  0x3d86d9dcbb863037U, 0x3beed05e3be05a4bU, 0x3bdcd8903bcc4fccU, 0xbd0d909c3caa703fU,
  0xbc5dc84e3c7875baU, 0x3ace16b83cf9152aU, 0x3d04aed03c74880fU, 0x3d35d038bcad6f29U,
  0x3d46f3e5bc849a04U, 0xbd1242f2bda06e9dU, 0xbcb04da5bc245f45U, 0x3d1bed233ce3eef3U,
  0xbd6bf7f43d2f28a4U, 0xbc894a873b8b36e7U, 0x3c343830bcd1a8c6U, 0x3d3e66a43d27c9deU,
  0x3d4b7d1c3cd39b1cU, 0x3ba5d2513ceb6c74U, 0xbc2753163d19db87U, 0x3ccdc99d3d16ab56U,
  0x3cd027893c261f9aU, 0xbd9b2fd4ba1604aeU, 0x3c43b1423b1b0a88U, 0xbb187e7b3c55b1b2U,
  0xbc7cad253d6a4bc6U, 0x3cf1c25b3ca88202U, 0xbdda3b6c3da8185fU, 0x3d29f0fa3c4b8971U,
  0xbcb660af3b9cff62U, 0x3dbbd8b2bb52bbb2U, 0x3ce6527b3db6237cU, 0x3ca04cf93ccc6c76U,
  0x3cc9d3493da0c2d5U, 0x3d8ceac23da89290U, 0x3c8918d9bc5df214U, 0x3d08188d3c940a56U,
  0xbc7a816b3abbdad8U, 0x3dce7b7abd682b1cU, 0xbd8c90263d8d05d1U, 0x3c8ce75b3d930ccfU,
  0xbd8c014f3da1da30U, 0xbd9e04003d6d87b3U, 0xbbeb01533da651e3U, 0x3d521cdc3d53db0aU,
  0x3c8144603dd4db2bU, 0x3da76aa53c665a12U, 0x3cdadfbb3d902910U, 0x3d99067a3ded0aa1U,
  0x3c9229ca3ca7a1e9U, 0xbd25b4fd3cafc472U, 0xbb8fa160bcbece4aU, 0xbd56b908bb692cabU,
  0xbc53eecc3bd55150U, 0xbd3d1d033bf5442dU, 0xbb9213a33b9b5309U, 0xbccfce06bc9dedbeU,
  0x3cd20906bcd7ca44U, 0x3caf886ebd315e8dU, 0x3c55bf7a3cbba661U, 0xbd0d6b2bbbf3b4faU,
  0xbcbaeed03be61534U, 0x3c82f6613d0cbedfU, 0xbcec58d1bc019e01U, 0xbcf4047bb9f77aaeU,
  0x3cf00a3ebb8b13e2U, 0xbcc20917bd331340U, 0xbd62f83b3b0de940U, 0x3d288d863c870e81U,
  0xbda4b7323cadbebfU, 0x3bbf5954bc330c14U, 0xbc4ce3afbcfafff1U, 0x3bf2af5f3d754a21U,
  0x3d62837f3ce2eac9U, 0x3c79ee6f3d1662b7U, 0x398d0c763d13e588U, 0x3cdc6c793cdbdf2aU,
  0x3b9c9e673c84eb0aU, 0xbce9f793bc9e8a9dU, 0x3d3b9b983bbc0231U, 0x3c19ae113d18cd7aU,
  0xbcba46f73d888477U, 0x3d5ecbc03d189af6U, 0xbd90e3fa3dadb52cU, 0x3d20242cbc1c7745U,
  0xbd8926883c04c2ddU, 0x3d9ef2d43c31ac7fU, 0x3c972a8b3db11886U, 0x3d04c40bbba140b3U,
  0x3b9d16cd3dad7a6bU, 0x3d7ffcde3dc93361U, 0xbcaf3fa83b2f80b8U, 0x3d383cddbce8ba5fU,
  0xbb324010bd1b0483U, 0x3dad267ebd0ee859U, 0xbd64c0643d7a456eU, 0xbc592cd53d8cdc6aU,
  0x3d0762943d6f5637U, 0xbdaa2ed43c07dfb6U, 0xbc8fd2e93dad93ceU, 0x3d72749fbc38f49aU,
  0xbbdd5a5e3db3cdabU, 0x3d9d2e023cbbd73aU, 0x3d797d953d450109U, 0x3d9e22d33da5815bU,
  0x3c8b8f953ca28b59U, 0x3c8d66ee3c65e6edU, 0xbc8999b3bd37ea96U, 0xbd762018bbcc364eU,
  0xbd02d19dbbd48c32U, 0xbd25527f3c202c88U, 0xbd7da7063c800402U, 0xbd33b359bc9d2c4aU,
  0x3b258c2ebc1db7f6U, 0xb807b0d2bcb1023eU, 0x3b3a60de3c7ec447U, 0xbc8370b93c128c66U,
  0x3caa80333c61b082U, 0x3c47bd8e3c6d8a91U, 0xbbe239403c0dd10aU, 0xbd9648273c122c7eU,
  0x3cc9303abb62619aU, 0xbbf37f43bd07109aU, 0xbc15e0583cbf3247U, 0x3c9491dd3c6c1334U,
  0xbd807f543d41ade7U, 0x3d7dd323bd0cd0b0U, 0xbca66f643c4ae643U, 0xbb807d223cc3e654U,
  0x3c55e9943cae190bU, 0xbc5eeeac3d0a1483U, 0x3ba1c6603cabf02aU, 0x3cea092c3cece2b6U,
  0xbb12c73c3c975ac5U, 0x3ca17c0bbcee1736U, 0x3cbb90b43cb5208eU, 0x3c9e25713d1f3efbU,
  0x3d235a703daad002U, 0x3d0ee6f33d302afaU, 0x3b2f97173da1702aU, 0x3d1344453b46624fU,
  0xbcd8d707baa451bdU, 0x3d9dc9683d359ff5U, 0xbb90a87a3d7b3bb0U, 0x3cec35ac3c5c48cbU,
  0xbc05ef093dac54dcU, 0x3da5b5573dac20f3U, 0xbc4ee3c93c1399edU, 0x3d53bcabbc637ff9U,
  0xbc183c373ccbedb8U, 0x3dceaab4bcc4a05bU, 0xbbf93b833d55e92eU, 0xbd2ca0e63d608121U,
  0x3d278c043d9d6211U, 0xbd566abebc1083a8U, 0xbdfd25273d382bdfU, 0x3d8b1a833d00d74dU,
  0x3c3389513da949a9U, 0x3d8e27543ba10b83U, 0x3d743eed3d862a4dU, 0x3d8246973dd24636U,
  0xba2d26bf3d39db6cU, 0x3cf5c2b23c293e68U, 0xbcafe257bd0d070aU, 0xbd03d003bbb29ab9U,
  0xbccc73e13c1920ecU, 0xbcdb9fe53c39eba8U, 0xbcb1db01bb87e408U, 0xbcf3fc8d3be22a12U,
  0xbcd8c9abbc7b1392U, 0x3c1788e4bb4017dbU, 0x3b48d8e83caedc1eU, 0x3b2b800a3c0f1f41U,
  0xbcb47a553c902fe5U, 0x3bcf1a4c3b0faaf9U, 0xbcb042af3d05e7fcU, 0xbdc0f1563be5ba13U,
  0xbb7e5cabbcd9e0acU, 0x3c058459bd0dbc68U, 0x3bc061653b05ee31U, 0x3c7ef18e3ca94cb7U,
  0xbd4e7ed33d1bdba2U, 0x3da820c5bd8b94daU, 0xbcfbe6b6bb35662bU, 0xbd030bcf3cdced79U,
  0x3c139bd53cfd6eedU, 0xbcc39d4a3d224a49U, 0x3d261c7e3c6e7b96U, 0x3cb0dad33c00d4f9U,
  0xbcb3bccb3c922c95U, 0xbcfa2919bc60d7eeU, 0x3d21a2873ce418cbU, 0x3d560f233d161ac8U,
  0x3d6f26843d9d0f9cU, 0xbbbf0a1b3d4d40c5U, 0x3cd7ff623da6c91dU, 0x3d50736d3d44775fU,
  0xbd02918e3a17b365U, 0x3d7fa8eb3d471c08U, 0xbc7ec6503daa688dU, 0x3d543e243ce37171U,
  0x3c3ca5ac3d64b6e3U, 0x3dc120553e013459U, 0x3c8d7de83cb9b3f0U, 0x3d2ae686bd0b5887U,
  0x3b87d6f33cf1c190U, 0x3df1af0fbc076a25U, 0x3d6b0a793da77b0dU, 0xbd854f683d8ec916U,
  0x3d3f5b773d92357eU, 0xbd36a2403d0fd701U, 0xbda26e3e3d9ecf78U, 0x3d7b0ecc3bab431dU,
  0x3c3c92593db358e6U, 0x3cefae0d3d1c8178U, 0x3d469e223d37a5eeU, 0x3da29e313dd4c5ddU,
  0xbca33a193d165781U, 0x3d6bcf183c812850U, 0x3c604267bd2c986dU, 0xbcf4ebd83c2ab434U,
  0xbca1f2123c9bf138U, 0xbd37641c3cb2dcdeU, 0x3cc5e2a23c1c0ae8U, 0x3bbcc4653ceed3eeU,
  0xbd0a00e7bcd6ae03U, 0x3c4445b63c9dcd7fU, 0x3c3bcd993cd373f1U, 0xbcb91bee3cd306caU,
  0xbce65b673bf2e6e9U, 0x3a57ebf13bd4f874U, 0xbbe6b59d3d1adbe9U, 0xbcff75203c78a5feU,
  0x3ce171a33c6f02cdU, 0xbca71a6dbbc8bdc3U, 0xbcc9c9d53ceefa9aU, 0x3c1b22ba3ca6e6a6U,
  0xba2ce5ce3d219193U, 0x3dc47255bd32dcbaU, 0xbdc564d53c9dadb1U, 0x3af3f80dbbbd31beU,
  0xbca80cdd3d26f18cU, 0xbd048ba63d80ed43U, 0x3d73e4b7bb28de3aU, 0x3d19780d3c9b44c5U,
  0xbba3e7223c57b6d7U, 0xbd2e0b833cc220b8U, 0xbb5f7a143c43543dU, 0x3abb9c713d528808U,
  0x3dce10383d825c2dU, 0xbcd3a6243d82c5deU, 0x3d723fc33d8263edU, 0x3d32541a3d838b32U,
  0x3cb88ce93c0e7e81U, 0x3d53f75ebcab4f46U, 0xba5fdae83daf31d5U, 0x3dd5bca73b27fbd8U,
  0xbab8a49a3d9e2bdeU, 0x3da2c1923dc84dcfU, 0x3d1d3b34bb66a8fbU, 0x3c69aa56bd1081eeU,
  0x3be8df443c9d7793U, 0x3d306739bca8fcb2U, 0x3cd6f9513d681e4bU, 0xbd8b4f833da44c74U,
  0x3d6755073d616288U, 0x3cecd6e33c8bb15cU, 0xbd4a9f643d89409dU, 0x3d54bf093c1f0dceU,
  0x3d4a12783d9cd0bcU, 0x3c9e267b3d23f736U, 0x3cc336f53d4d7d79U, 0x3d802e413dc01bc3U,
  0xbd8dadd43cadc9b2U, 0x3cc78a333d03fb26U, 0xbc91a44fbd38bdb2U, 0x3c6c00ee3cdcd4c0U,
  0x3c01a9ce3c4dbdf4U, 0xbd6933693ccdca19U, 0x3d4d92433c6cc4f9U, 0x39f9a1093ba83617U,
  0xbd3bb278bcf429e0U, 0x3ba1f51c3caa840fU, 0x3bb9ca1a3c3d706eU, 0xbd2f38473d513218U,
  0xbcfe7d143c11c648U, 0x3c7b264d3caba625U, 0x3bb949183d526604U, 0xbd60f2a73b9634a7U,
  0x3cc646b4bc10f011U, 0xbcf30a103c33353aU, 0xbcaeb3713d180004U, 0xbae376d53c0488c9U,
  0xbd117e053d0db97dU, 0x3d58783abc0ae839U, 0xbdb255d8bd0eea49U, 0xbca08e65bc510503U,
  0xbcb524d43cbe357cU, 0xbd92acc33d0a8a22U, 0x3d39574b3be857e1U, 0x3c55629d3d09b080U,
  0xbcfaa0b03c9e52adU, 0xbd2d003d3d4d4998U, 0x3d289c773cb77d8dU, 0x3c339a6b3cfe9e29U,
  0x3d30af1d3d707072U, 0xbc62d5833d8970dbU, 0x3db1b2ae3d920847U, 0xbb99b0df3d3e8e5dU,
  0x3d3fb0333cbeef0dU, 0x3d342d5bbafff7e9U, 0xbd5f142d3db6cf04U, 0x3dccef853c3af9afU,
  0x3c3850ce3d7767c1U, 0x3dbd30373dcb7f3eU, 0x3dbe3dfabb89e93cU, 0x3cb0252ebd3cc055U,
  0x3c6f661e3d41e37eU, 0x3d701fe7bc1aa457U, 0xba29bea73d43f035U, 0xbb92f1893d0e11aeU,
  0x3be2b3e13da3ac57U, 0x3c04bbc83c420beaU, 0xbc7de2a93d364972U, 0x3d2b86573c87c4eaU,
  0x3c5e69113d9bbd96U, 0x3d0faacb3d6bb343U, 0x3cd92efe3d321612U, 0x3db3064e3d8628caU,
  0xbd4a122d3cb87630U, 0x3c00922f3c38e1e8U, 0xbb8bc36abccba7f8U, 0xbb96c2f53d423b35U,
  0x3bcdb2883b74a631U, 0xbd3284a83c7d92a8U, 0x3d72d3683bfc8208U, 0x3cdc7800bc2bc474U,
  0x3bfb7943bd59cbfeU, 0xba2ef9ff3ce76098U, 0x3cbce66fbc2986f9U, 0xbd4d5f273d1f12b1U,
  0x3b9f54633c2ac2ecU, 0x3bc5903d3c8c1533U, 0xbc2322233d3dd713U, 0xbc5a108bbbb834bfU,
  0x3c3582733c37c253U, 0xbbf9f8643c85d90bU, 0xbda4889c3d5b62c4U, 0x3bb9d4a83c54a1d7U,
  0xbca488be3d75f5f5U, 0xbcf217ebbcfa5c28U, 0xbdb6e697bd505905U, 0x3abf0970bc9c5102U,
  0xbc4272053d2b9635U, 0xbd8aa7c53c21986cU, 0xbbf0a0203cb6cb9aU, 0x3cd14acc3d25bd4fU,
  0xbd51ba9abc737943U, 0xbd104b873d702530U, 0x3ce56d7c3b283734U, 0x3d5f1ecc3cf0ff5fU,
  0x3caa356a3d3a8364U, 0xbb22e8923d78f8d8U, 0x3cce847b3daf7493U, 0xbd4075d73d06ae93U,
  0x3d0660523cf66e45U, 0x3d65b619bce23843U, 0xbce64d5f3d9a3932U, 0x3da0b8353d27a83eU,
  0xbd0e25653d4a238fU, 0x3d722c763db30bddU, 0x3d9d0872bcb85fbeU, 0x3d0554bfbcd2956dU,
  0x3d02110b3cec7c11U, 0x3d35c10c3cb1e59fU, 0xbda4e2c23d844db1U, 0xbc0a89fd3d89eac3U,
  0xba2a547c3d8354d0U, 0xbd29d577bcff5476U, 0x3be9466c3d30eb25U, 0x3d0ab246bcaefbf6U,
  0x3cdc23753da36ee8U, 0x3d02dae63cfb2fb1U, 0xbb9731a93d79170fU, 0x3d80bb333daaf351U,
  0xbce54be73bcc977bU, 0xbd875a443cda9601U, 0xbc9b1c99bca22cecU, 0x3a5fdf583c850082U,
  0x3c5241adba4a2bb2U, 0xbd3e9f083c2b59deU, 0x3d5f64833c42b2c1U, 0x3cc71872bc16ac32U,
  0x3d39d263bd40c4c9U, 0x3c9fac56bca259fcU, 0x3b242e7bbb173941U, 0xbd1d8d3b3d80ae1eU,
  0xbce1a4f73a8fa02aU, 0x3b3c42853cb91630U, 0xbd87ea203d295d2cU, 0xbc9569c33c4690a3U,
  0x3c2eee79bc70e4d3U, 0xbb464773b9fcdfe8U, 0xbd4a751a3d14ca78U, 0xbd26dda43cc591b2U,
  0xbb7fb78d3d3e6199U, 0xbd458fd83cd47bd8U, 0xbda7beefbd83b3f8U, 0xbd0b3aa6bcf98c19U,
  0xbc594bed3d12c42dU, 0xbc829b74bbbb8ffdU, 0xbd2967f23d1d5964U, 0x3d0eb8373d414d61U,
  0x3bb8ebdbbc91045fU, 0x3c3c606d3d6b01aeU, 0x3d78e2983b82b143U, 0x3d22a2623d021030U,
  0xbbe94b363da3df31U, 0xbcf7bd733cd80f6cU, 0xbd0ddbf43df3172aU, 0xbcf671f03c93ef42U,
  0xbc9e1add3d104798U, 0x3d1f0cb43d07bc80U, 0xbd703ea83d93cf2fU, 0x3c33928e3aea70a8U,
  0xbd70a3d63d80524bU, 0x3d924a903da9fa41U, 0x3d420842bc2e051aU, 0x3d3d546cbd6c73c4U,
  0xbca006093caf4c64U, 0x3d64f7ee3ce3abd8U, 0xbd851ae93d262e2eU, 0x3d0f38163d92c3a3U,
  0x3c9f4fd63d73e506U, 0xbcc2a5163a81e42bU, 0xbcb17e5a3d438530U, 0x3d776b2e3c1e7ae8U,
  0xbc13972a3d912f4eU, 0x3dc61420bd5aaffeU, 0x3c1fd8703d591b91U, 0x3da54e7d3d9027ecU,
  0xbd1c154bbc4351c3U, 0x3c3237023d0dec8cU, 0xbd542bdebca116a4U, 0x3ca39347bcc21081U,
  0x3ce2052d3c1ead94U, 0xbd6395e03cc75761U, 0x3d01c37e376df2b2U, 0xbd1acc0fbce5cdb2U,
  0x3d1f756bbd650c6bU, 0x3cce40413c626188U, 0xbc7ad4463c57d1bdU, 0x3c61ae323ce8ce53U,
  0x3b51f0673c03c880U, 0x3ce0f20c3b09e1e7U, 0xbd728ffe3c11e66bU, 0xbd63c5a73a85493eU,
  0xbc5f10d73ca56de8U, 0xbc713221bc4cd621U, 0xbca53be23cb8132fU, 0xbca8d5e93d0884b5U,
  0x3d3baefc3d433a1dU, 0x3c0ea6b33d22f278U, 0xbdaf434bbd3c7325U, 0xbcd929c6bd51ab6dU,
  0x3c811f543cdd0605U, 0x3bb838cbba774dd5U, 0xbaf1cf5a3ca66634U, 0x3cc054e63d37d0c4U,
  0x3d88b213bd05978bU, 0x3d2865113c8bfa73U, 0x3d448f773c5e217bU, 0x3c2261773c712a3bU,
  0x3cc78de73d88b965U, 0xbc4f127e3d3806efU, 0xba1b2d023dd43011U, 0xbc17e88b3d17be91U,
  0xbb7d39c63d2cc642U, 0x3ce6a09f3d8d0ed5U, 0xbc88daef3d4693a9U, 0x3c91d4e8bd070647U,
  0xbcc240da3d36fc44U, 0x3d8bf0f33d851bc3U, 0x3a00b57ebc5de5b7U, 0x3d0f5cb1bd68f484U,
  0x3c8b6d333b83fb12U, 0x3cb574f33d2424c1U, 0x3c29a9cf3d0128b9U, 0x3c8852d03d44593eU,
  0xbcb0073e3d7f1744U, 0xbc9861713d232662U, 0xbc9430e03d8ae21fU, 0x3ceac243bd836138U,
  0x3d66512c3d9d7c27U, 0x3dc76c97bd822878U, 0x3cdc24a43d127df3U, 0x3d6cbdea3da0f095U,
  0xbd85222abc455d8aU, 0x3ca8cc7a3c15a341U, 0xbd54220cbd186284U, 0x3c4573cebcd088e4U,
  0xbb1d6eedbb8041c4U, 0xbd583dd13c9e1726U, 0xbc8dfcddbb152361U, 0x3cab603abd5e41f3U,
  0x3b88c941bce72bacU, 0x3d02075f3b855721U, 0xbb3a84cd3c52ccb6U, 0xbd05f0c43d2cf187U,
  0x3ca322d1bbf2c6f4U, 0xbb5c0f543c547aa5U, 0xbc346b86bc2a49fbU, 0xbd835dfabaca1a0bU,
  0x3ca7e4833cc76a6eU, 0xbd4ebc81bc68fd87U, 0x3bb86f463c261528U, 0xbc7c858a3c271447U,
  0x3ac6efac3c0d6080U, 0x3c8800f83d1e9bdcU, 0xbd3234a2bd4e2923U, 0xbcdb4319bbe83d4fU,
  0xbbac10933ceba059U, 0xbd1fee47bd897dbfU, 0x3ce51f4a3d0415c8U, 0x3d5f8a713d15d20bU,
  0x3daf3ea2bd3c4594U, 0x3d46d5313b7b10f4U, 0x3d5ee0693caf14a5U, 0x3b03df8abd10010cU,
  0x3cbb43a33de0ef56U, 0xbbdbbb723cf27bfaU, 0x3ca4fe2d3d92309cU, 0x3d2286593d9300e1U,
  0xbc6cb2ec3caf353bU, 0x3d5063163dcf2785U, 0xbc123b443d8f9d77U, 0xbc35d327bcfad277U,
  0xbdb5e8213d4295dfU, 0x3d2466a03da688e7U, 0xbd46fc493c38632aU, 0x3cd5132a3b84af82U,
  0x3cd099423b611914U, 0x3d9caf8b3d212303U, 0x3d155c823d5c7ac7U, 0xbcd253213d7ce7ccU,
  0x3cc7355b3dce9d74U, 0x3bc2e4b23da8e8eeU, 0xbd250cfe3d51f41cU, 0x3d0db3b9bd1c9a93U,
  0x3cb1c2c53da5b0a3U, 0x3dbb1322bd508838U, 0x3d617af93d197016U, 0x3d5d1e893da6097aU,
  0x3b9318b4bc904384U, 0x3d51c1f9bc5001f1U, 0x3b7e3bdd3cccd440U, 0xbd8b089fbc1f9b82U,
  0xbe2ff6443bac3f17U, 0x3ba4cac8bcc62edaU, 0x3da6d59fbd5f7e19U, 0x3ca57206bc4e9512U,
  0x3c9586adbdf48a9aU, 0xbdac88b43d10924dU, 0xbcf4ca56bd69ee07U, 0xbdf0ddb8bd8106d8U,
  0xbbe38735bd4d94faU, 0xbd147033bce7562fU, 0xbca438f83d36e269U, 0x3d8375cfbb52b439U,
  0x3c803fe43d720f4bU, 0x3d55da2bbcfcab5aU, 0xbdfe0b7cbbc6cedfU, 0x3c9451093c885243U,
  0xbb89606c3da5f658U, 0x3c4781653d70f3b5U, 0xbc20b7a6bc341388U, 0xbbdc384a3d9eee69U,
  0x3cab98e43aa02b5eU, 0xbb46378bbd8c1967U, 0xbcb5f802bc43effbU, 0x3c4e4f993c41ff37U,
  0x3c5eab21bbc2db4bU, 0xbd70346fbd0c8bbaU, 0xbd6044783cec74d9U, 0xbd533accbb424375U,
  0x3c41ad203c49b6a0U, 0xbcc7a547bd134c70U, 0x3cb23bccbc4df12dU, 0xbb0412183a27f9cdU,
  0xbd07cae23d618086U, 0x3ca1afa9bb33f22bU, 0x3c096b73bac0ca43U, 0xbd2c063f3dddfda2U,
  0x3d3d182fbc44e5f8U, 0xbc9639103bf8d771U, 0xbd22b713bd0cb577U, 0xbcd8a0d5bc17ae57U,
  0x3df4a40bbd1891efU, 0x3bfab9073cf8a9a5U, 0xbc2325893c2fe961U, 0x3cdaaadabd74de33U,
  0xbbe35ea8bd0ed55aU, 0x3c7473583d66968aU, 0x3cd4d48dbccb9f1dU, 0x3cdefe253caaad1fU,
  0x3cc9f227bb1ebba7U, 0xbd4fc7c13d944730U, 0x3c91af093bcec6c9U, 0xbcb3b5e63d304bdbU,
  0x3e104937bd4dbe01U, 0xbd5028273d92c93cU, 0x3b611d39399ec62cU, 0xbd907b79bc4e457fU,
  0xbdbf2e6abcfebe18U, 0xbc2bddc8bc6a6032U, 0x3ca0a7cebd384220U, 0x3c66040abcb32231U,
  0xbbe7aa3ebda78e43U, 0xbd98042e3c41765aU, 0xbd57fbebbd7522f7U, 0xbdae4950bd183c62U,
  0x3cb40ad5bccb1a5bU, 0xbd012003bd1d0a99U, 0x3d2c49a33c8cd1b0U, 0x3c4b1194bb10c991U,
  0x3d0f07993cb8a475U, 0x3cab5a3bbc9a6b14U, 0xbe50a7d43c9581d7U, 0x3d7a30d1bb526af1U,
  0xbd524a633d11257fU, 0xbc8e0b3e3cf29161U, 0x3cc897d03c405de7U, 0xbc8c047f3cf1fbe9U,
  0x3c13d3b23c95950aU, 0xbc6dcb5d3bfbf58fU, 0x3b2c0a6bbbc38652U, 0xb8cf1d96baf8dfafU,
  0x3d23feabbceff1dcU, 0x3cd7bea3bd4033d1U, 0xbd40c0c73cfa09c2U, 0x3cc509e63d47b8c6U,
  0xbd8ee734bc4f1c9bU, 0xbd864459bd650425U, 0x39d687813cb10f59U, 0x3b2e06493b5b9307U,
  0xbb5021103c630ffcU, 0x3c939a2c3c89b5b8U, 0x3c8d8f58bcb7bed2U, 0x3a4fbfad3d7ce311U,
  0xbc1bf5ffbc27b1fcU, 0xb9850583bc3195d1U, 0xbd314e2abdae241bU, 0xbd5dcdad3c905185U,
  0x3d917a57bd82cdd2U, 0xbcbe078e3d567e6bU, 0x3debac09bc2c5d70U, 0x3d929f9abd0314e5U,
  0xbcd4a3c8baa6f1e3U, 0x3d7660ac3d25cea5U, 0xbd1719ce3c71b252U, 0x3cab992a3d705bb8U,
  0x3c3f824abb9f3333U, 0xbde2e8f43d54dfbbU, 0x3c341ae23c5a3003U, 0xbc41a4b13c5d8363U,
  0x3d2c6e5cbd22da13U, 0x3b275a653af20a12U, 0xbc0435c43bef25d0U, 0xbd9108efbc9e62c4U,
  0xbe02ca58bc888b53U, 0xbd2cb557bd03cf3eU, 0x3cb96a18bd4cd9b7U, 0x3ce8a114bd0d61daU,
  0xbc82392fbd2804b7U, 0xbd25d0cabc639bd3U, 0xbd5cd8d7bd7e302dU, 0xbda87096bcc81073U,
  0x3bd2e58cbd3c9d0dU, 0xbc9b84b2bca56f55U, 0x3cf9f21abd4b6524U, 0x3d05b78a3afc9eedU,
  0x3cde329a3bab05e2U, 0xbc40de8fbb574ed1U, 0xbd838e8c3b821948U, 0x3d3549293b34c3b5U,
  0xbd47d8e83d0526b5U, 0xbd18da1b3c65e6c7U, 0x3d3f3aecba7b29c7U, 0xbc14a28c3d111144U,
  0x3cae17aa3c7e7851U, 0xbd28f1c63cc158d0U, 0xbcb43b5fbc74bedbU, 0x3c84849c3a94aa03U,
  0x3cc003ecbcc21ab5U, 0x3cab26adbce1abd1U, 0xbdcf41193c90f1c7U, 0x3ca97b333ddb8a2dU,
  0xbd4e6c83bc7d43f1U, 0xbdd8dc85bda0b6a1U, 0x3af09f873d671453U, 0x3cd8b253bb912fd5U,
  0x3d5d6b1f3c11fcbfU, 0xbce8c449bd22cd53U, 0xbcd1c102bb210456U, 0xbd70fb2e3cccad83U,
  0xbc12ab33bc87ac79U, 0xbb22cb89bc9fd2b6U, 0xbc934651bd768cfeU, 0xbc9f5f613ceeb3b2U,
  0x3d2d95cebd2074b8U, 0xbcd663533d87df28U, 0x3dd2a2ddba20036cU, 0x3d5bee6cbd4bca32U,
  0x3d23a2683d1b8defU, 0x3c262adf3b5a66abU, 0xbc4d22263bafada7U, 0x3b2ac3c53d9a01b9U,
  0xbc9e052e3c037560U, 0xbdc6f9943d0fd956U, 0x3d3cf733bba7e1a8U, 0xbc2be3f33c35306fU,
  0x3bce6f21bc48bb00U, 0x3b2bd15e3c100a6eU, 0x3d0aee28bc2b4d8dU, 0xbcad41d33c1adaefU,
  0xbdb698b9bbfd92fbU, 0xbd908e8ebd43e9e2U, 0x3c4c74fabd658bc9U, 0x3d2bca29ba88bbc6U,
  0xbcf6f071bcbad008U, 0xbc6af079bb833252U, 0xbd150c27bd48b4d9U, 0xbd187340bcca5589U,
  0xbd3de271bd41a371U, 0xbcf1844fbb94bc5bU, 0x3d107cc6bd36910bU, 0x3b94e08b3c211b04U,
  0x3c0abeb43b176795U, 0xbd10682b3b390040U, 0x3b85ae9e3d96bc68U, 0x3d5793693d17c2e2U,
  0xbc8ed4d63d2b4176U, 0x39308b17bcef19f3U, 0x3d4755593beae897U, 0x3c3174633d50e9bdU,
  0x3caeb6513cd07633U, 0x3cae57f0bce22edeU, 0xbc8b2967bd1e4e18U, 0xbb5f0fee3c5bb812U,
  0xbd7ce5debd265907U, 0xbc59d731bc90e397U, 0xbd81da5fbc2fae6dU, 0x3cafb55c3dd77bacU,
  0x3cf31176bb86db45U, 0xbd67ca92bd344b2fU, 0x3c8ae32e3d32ad3cU, 0x3dcbb7a8bc398841U,
  0x3d98ab463ba05e5cU, 0xbcfcecc6bd47c89cU, 0xbc9d19403c10bce9U, 0xbd2784e2bcd95602U,
  0xbcb36dd6bcb73265U, 0x3c1850f1bc279997U, 0xbc654e783d1417bdU, 0x3cbe5299bc76dc55U,
  0x3ce0b6b1bd6d11bcU, 0xbc63b6a63d889864U, 0xbc25afb53c8443f6U, 0x3d676134bd218672U,
  0xbcf1448e3d082b46U, 0xbc5b6df9ba5eee5fU, 0x3daa187c3d3dd6efU, 0x3c81cbfb3d88ed19U,
  0xbd007fcfbc7f237dU, 0xbd3348f83d647f23U, 0xbbc572513ba91e17U, 0xbc9cf9b03be0f223U,
  0x3cd93e853b643afdU, 0x3d651234bbea369fU, 0x3c40c593bc7e45d0U, 0xbbf04ad3bc2c396cU,
  0xbdb04d693b5762f9U, 0xbd2f67b4bd016b47U, 0x3d51e53fbc8e48b4U, 0x3cd4dab33c812856U,
  0xbd54c2d63cfe47f6U, 0xbc5541893b5e3ff7U, 0xbd16cffdbd703390U, 0xbbe5756ebce37489U,
  0xbd3f2e9dbcc39034U, 0xbcd33527bd32e33cU, 0x3c8d8016bd0b95deU, 0xba1495af3c999d0fU,
  0x3c13d30a3cc6a4b8U, 0x3d0d875dbc961d1fU, 0x3d04e27f3d8dbdc3U, 0x3d48993d3d3a0d59U,
  0x3d69b4d23d0d68d5U, 0xbc90ddeabce90e3eU, 0xbd073071bc93be3aU, 0x3c9b663e3d23c3ecU,
  0x3d6f0dfb3bb96a92U, 0x3cebfb563cd093c1U, 0xbc7e295bbd373a59U, 0xbc03d5eabaa0265cU,
  0xbd1b2b4ebd4c5948U, 0xbc8c2f45bbd22cc6U, 0xbd161f27bd069ed5U, 0x3d41bbc43dc8a588U,
  0x3d3e8b873b52283aU, 0xbd85f6e6bd4b8438U, 0x3d59e7b73d5850a5U, 0xba92b5e3bb8f8347U,
  0xbc0f14fe3cbab208U, 0xbcf41869bd3537e1U, 0xbd3b905bbc8f1c40U, 0xbc4d2f91ba3ce267U,
  0xbd40d82bbb929bbdU, 0xbc00c1cabc9c3e61U, 0xbbb67546ba594862U, 0xbcf16c60bc999fccU,
  0x3ce5f7623b8a9851U, 0xbd8f2ba23d02fe92U, 0xbc893ad53d3654bcU, 0xbc337c9dbc72769eU,
  0xbcfae8a6bbc79ecaU, 0xbc14f93ebd41faf7U, 0xbc020f2f3d178b4aU, 0xbc8002463d1ae5c6U,
  0x3c8c6f94bc9f635fU, 0x3ca0fb0d3d2d1fe4U, 0x3b93947bbcae2a58U, 0xbcda0c743c04cc9aU,
  0x3dbe06f6bd93a3ffU, 0xbd35d3aebce28cfaU, 0xbc35130f3cdc2e35U, 0x3c06fd6dbcec29a9U,
  0x3cf9ac143b8261d9U, 0xbd874c83bcc38d9eU, 0x3d0dc9f7bc3e524aU, 0xbcc7087f3d0b9a11U,
  0xbd40ae383cc5ca23U, 0xbd2d5cd63ca4e107U, 0xbc9c5b0abd56a05aU, 0x3ccc8011bdc75b76U,
  0x3cd24a93bcc40268U, 0xbcf1eb14bd0b7e6aU, 0x3b2d5a01bd4607acU, 0xbb1f35b23d12bc3dU,
  0x3b99af473d1025daU, 0x3d5c8fa8bc88b2c5U, 0x3dafee643d4e7a74U, 0x3d42e3cd3d3bfec4U,
  0x3d866cd83d7ad636U, 0x3c5c9a6dbd1de4f1U, 0xbdcde2573d02466fU, 0xbc87cab7bc92fd2eU,
  0x3d365866bbd759c7U, 0xbbe0b7b83c9ca099U, 0xbd442252bccb72c2U, 0x3be3cad83a66b8e0U,
  0xbd047631bd617425U, 0xbccbfa90bb44962bU, 0xbd03ca963ade82e7U, 0xbd9b34d23da6b876U,
  0xbb8ca3233c847eb2U, 0xbdc50e7abd58ee0bU, 0xbd626e773d5ea445U, 0xbcae641ebcee2e8aU,
  0xbd0104bf3cd7f66dU, 0xbcced2c43bd82ee1U, 0xbd9720e5bc7b9225U, 0x3a68543cbc8caa30U,
  0xbd876b22baa0d024U, 0x3bf89cf3bd18fe60U, 0x3bdbb0acbc0c0833U, 0xbdc49c55bba6bea6U,
  0x3cda7e33bce9b4faU, 0xbdaf43cbbd5f1b04U, 0x3cf53a5f3d3d24f8U, 0x3c8f7355bc6a2ae5U,
  0xbd5ab000bd1b9724U, 0xbe19120fbced4691U, 0x3cf0b6743d3b1e6aU, 0xbbabe7a03d3e178aU,
  0xbc24058a3af4793fU, 0xbc2c8b773b9c3cc9U, 0x3cc6c3d9bd4627caU, 0xbc7d11243bad51e3U,
  0xbbcdc70bbdabaee3U, 0x3c4b5101bcaf9c81U, 0xbcc6be523d298c40U, 0xbca05f5abab43f3cU,
  0xbdf200503ccfbd17U, 0xbca88509bcc8f76cU, 0x3cc8b442bd00defcU, 0xbc2388013d3d44d8U,
  0x3c7ad167bc840018U, 0xbc8864363c5959fdU, 0xbd62e790bd5f3443U, 0x3cf314e8bd9a65c5U,
  0x3d786d76bcb61d7aU, 0xbbedbef0bd3e4c06U, 0x3c4fcccbbd70d917U, 0x3d80590b3c254607U,
  0xbb953db83c873f80U, 0x3ac13070bc3eb5a0U, 0xbbcc3f723d7901fcU, 0x3da362073d8afdb8U,
  0x3dad78d03d5dfca5U, 0xbc8bdf753cbe97d0U, 0xbbaec0393d67bc06U, 0xbc0073793cb74020U,
  0x3d518122bd0962d8U, 0xbcaf4650bd072a0dU, 0xbc43d286b9a99e66U, 0x3c1578a9bbf0be8cU,
  0xbd305657bd7d3195U, 0x3d40c92d3c929987U, 0xbcf03ec8bca27df1U, 0xbdf8ae423d3a8409U,
  0xbc836dd63c2ef7acU, 0xbd3027e2bcc3e092U, 0xbd8785dd3c9fe0f3U, 0x3b0c7edebd3da180U,
  0x3c53dfce3d07561dU, 0xbbc544edbcddba25U, 0xbd3af929ba052636U, 0xbcef8f0d3b8ca32cU,
  0xbd6015153c837437U, 0xba72eb2abd1615ecU, 0xbd057aadbd1ca713U, 0xbdb7f87e3cb2f937U,
  0xbb9254e5bbf3e7e9U, 0xbd23df8bbd362dceU, 0xbd50d0863d07532bU, 0xbc99ef903c6a3e0cU,
  0xbd586c93bb0886aaU, 0xbdca57493a8b93faU, 0x3da7df773d007abaU, 0x3c848c2d3da2585dU,
  0xbd06ee12bbf5c7c9U, 0xbc1ee1a5bd6842d2U, 0x3cc51fd9bd28b6c5U, 0xbcd717d93d052b74U,
  0x3d220cbcbd924f74U, 0x3c3c999cbd50a53cU, 0xbd0918e23ca3bb73U, 0xbd8c9f7c3c4e2052U,
  0xbe2a3df83b5a01daU, 0xbd024827bc2725e9U, 0xbd78aa59bc891e38U, 0xbcc276363d836c3eU,
  0x3cbe8e20bc181c25U, 0xbd2aa2ec3ccfbb27U, 0xbd25eecfbd53eac0U, 0x3c42817ebcf6584aU,
  0x3c9b5967bbbf0adcU, 0xbca0daa0bd4236eaU, 0xbd342e62bcd2f8ebU, 0x3dc2e126b9ce6782U,
  0x3b8879de3c29dda0U, 0xbd076021bc5891b3U, 0xbd5cc2773d9a239cU, 0xbc5981c23d740d3bU,
  0x3d2cb0933dd90d4dU, 0xbc3805d73c9da675U, 0x3cec88043db26f61U, 0xbceb32003d84f681U,
  0x3cbc77ccbca179d9U, 0xbbae94bbbd59d995U, 0x3ca668143ab9c937U, 0x3be11e9d3b2a47e8U,
  0xbd74d86a3d12040bU, 0x3d1ceb4c3c1cc34dU, 0xbcfa5e8dbd4badcdU, 0xbd275a95bd11f2cfU,
  0xbdaa22c33c77c726U, 0xbc5b0dc5bc5b69edU, 0xbc652fec3c755003U, 0x3d6aee8c3cc747fbU,
  0xbd6ee5b33d187a02U, 0xbd6fa4973cc12156U, 0x3bbdd26e3c057273U, 0x3c5ce2bd3d5fc6bfU,
  0xbd1d415c393c5ecfU, 0xbc3a206cbd00a7e0U, 0xbd9f8ea83cb34156U, 0xbdfcb42e3cedc668U,
  0xbd48e9babd2aaa08U, 0xbc8b93e1bd42611cU, 0x3d0a5b0e3cc14682U, 0x3cafd54a3c460bcfU,
  0x3d4f661b3cdbef04U, 0xbd2c55d6bd77a3c3U, 0x3d0e45803da6011eU, 0xbcce60bc3bd740b5U,
  0x3d7c994abba23967U, 0xbd4c0e6abd7484e2U, 0x3dec6b45bd0c465aU, 0xbc24d8e83ce45f9cU,
  0x3d4ac1a7bcf2adfdU, 0x3c8245c53c029922U, 0xbd707b0bbd86c64fU, 0xbddc96233d0e82c7U,
  0xbdcf43683ac4b1a1U, 0x3ca6dfd0bcb1dba7U, 0xbdcfdc723a103126U, 0x3d10d355bb815801U,
  0x3c3ef7f5bd0b5ef7U, 0xbd1fe513bc30ab06U, 0x3c8baad2bcc76a4dU, 0xbc1e6a23bc6a4e6eU,
  0x3a8c09d7baa0702dU, 0xbcdaadd2bd8bd698U, 0xbdd20684bcc3b984U, 0x3d50d0123bc19586U,
  0xbdb5f8ccbd55e80cU, 0x3d28ef0abb9307c5U, 0x3a5f94ba3d48bf21U, 0x3d022cef3d64fca9U,
  0x3cadc4873dc81291U, 0xbca60bb83a8a200cU, 0x3ccb58483d8c5cccU, 0x3bc7b1303da91201U,
  0x3ab69ddfbb5230d3U, 0x3d3bf8e3bba34fd0U, 0x3d234e883d08af24U, 0x3ced62733c9d7054U,
  0xbd23f3433d4a44afU, 0xbcbc14b63ba24ccaU, 0xbc87a3b9bd090a36U, 0x3b4c9c92bd9bbb3aU,
  0x3d7f1eda3ccadcb7U, 0xbc0e95d2bc078b7eU, 0x3dc76134bc36bb3eU, 0xbc3a868a3cacd0b1U,
  0xbdc6be6d3ca9789fU, 0xbd487db33c501b84U, 0xbcf5edc8baff71e4U, 0x394dd8fa3d39d1a6U,
  0xbd31111cbc2147c9U, 0x3cad3d09bcbc112aU, 0xbc9c173fbc026710U, 0xbd1b47833cf76af3U,
  0xbd0ec112bc8d99b3U, 0xbcacf100bcc10970U, 0x3d46e39e3c6dd0a0U, 0xbcc993043d45823bU,
  0xbbbecb973c2653b0U, 0xbc2100debc184f0fU, 0xbbce1c293d309712U, 0xbc0fe9db3bcb9576U,
  0x3cbd28fdbc46c7c8U, 0xbd325690bcaae441U, 0x3d6d6549bd316badU, 0xbcf9c89a3cc6b424U,
  0x3e09633bbd0a198cU, 0x3a3b3dadbd1309b3U, 0x3c049cbfbd43d133U, 0xbdc5e4ed3cfea826U,
  0xbdd1f0fabc21765aU, 0x3c7d14c5bc42a64cU, 0xbde2cf4c3b350f50U, 0x3cedc3eabd6e59d2U,
  0xbd6edd97bccca0d4U, 0xbced8fc2bd6f5b08U, 0x3b99a71dbd13272eU, 0xbdb5595cbd26aa2cU,
  0x3c576fea3b9d3bf4U, 0x3b2606b7bda32455U, 0xbd9a9d94bc855562U, 0xbc32a98c3bb1be5cU,
  0xbdc38e34bd9955e3U, 0x3ca222b3bd08823dU, 0x3cc5e5ed3d3574aeU, 0xbd7000433d914d92U,
  0x3c14a00e3d3b30d1U, 0x3c997386bca548dfU, 0x3d661af73df3aac8U, 0x3c9ff0bd3d37def2U,
  0xbc66abf43b91ff5bU, 0x3da55624bd7c6990U, 0x3c6a5c1e3ce963b5U, 0x3ce9605d3c8eb82aU,
  0xbd5c3d593d5f7283U, 0x3c07dc95bd0fa94eU, 0x39a09784bd1e10f4U, 0xbdd1e9f3bcc8cf1eU,
  0x3d0440863c337b1bU, 0x3a7d3877bbda72d8U, 0x3d3992143af57d7fU, 0xbcc0d0d5bcd193ecU,
  0xbd138fd03b1fe266U, 0xbd876f143c90b015U, 0xbd92c1bd3ae1ab58U, 0xbccd80ca3c7e9108U,
  0x3ca11fb2bcb0ff47U, 0xbbd2ebe9bc8a87edU, 0xbdb8fb07bc5e7eb7U, 0x3da3c3903b706e0dU,
  0xbd652edcbcc9c309U, 0xbd8d59c4bcee5490U, 0xbc84d10e3d2cb9b4U, 0x3c01d39a3d667149U,
  0xbd2c1374bbdc73aeU, 0xbd065f7fbd683821U, 0x3d29529e3cbedc47U, 0xbcf9a1de3cf82567U,
  0x3db4d602bc94f4f8U, 0xbd9ceb89bcc6220dU, 0x3c7c63f6bd88ec4dU, 0xbd0c116f3a1cfb46U,
  0x3d8379fdbd736eddU, 0x3be2d793bd0c0609U, 0xbd841dabbd91ac24U, 0x3d3d6e95be02c1b0U,
  0x3ca8d652bcd4522eU, 0xbd212316bbf04623U, 0xbcfd9756bd18326bU, 0x3cef950abc763628U,
  0x3b1ad0413d10ae2eU, 0x3bf4ad54bd86e308U, 0x3c1f7ff83b5f3803U, 0x3d3b7f513ce7d084U,
  0x3aa8e93ebd19b808U, 0xbca666133c377c0cU, 0x3d339796bba55bbeU, 0xbd6c3de8bda6da5cU,
  0xbd8044393cbae732U, 0xbbfbf78b3cc3984dU, 0x3d6a55cfba31204dU, 0xbd9b81ecbaf38b07U,
  0x3cf4c2bfbc774d07U, 0x3b87d74ebcebcce1U, 0xbc8576dabbb4a635U, 0x3d50cd13bcf2bcd2U,
  0x3bf985453d548bf1U, 0xbb03283e3d34ab45U, 0x3c9e4ef43dc20f81U, 0x3db6e5263cf55b55U,
  0xbb3465303c801893U, 0xbd189f433d3a2d06U, 0xbd1c38873c12c825U, 0xbcde43ab3c38b3a7U,
